3D8DB4A7
3E1F0AB0
BC9004B0
BE1B905F
3C18F90B
3DBB4944
3D59E9C9
3D920B66
3D9C8F9C
3C06431B
BC287143
39288443
3D8D83B5
BB1B3AAE
3D0CDAA7
BE07569E
BC51A610
BDB4BAD1
3DF05DA5
3DA3C79C
BE444566
3D9FB1E4
BCC63F1F
3D1455FE
3DDC0439
BD1F7E20
3CE81675
BE0419F7
3E27CB68
3DA1BB13
BC275CF1
BD9FF6FD
3DB3ECDA
BDEEBE1D
3D5EE441
3DF39AF0
BD81635D
3D18EDF5
BDAB7677
BDBF5512
3DEC82A0
3D18DEEC
BD70A71A
3C46C851
3A9B40E4
3DF77956
3CE0D558
3D3FA6AC
BD18B2D7
BD6B98AA
3D1FB04C
3CE2C89D
BD79566B
BCAA61C3
BD82E1AE
3BC468FB
3D0C8480
3D9E9927
3D9C954E
BC6A205A
BCE44153
BCDB54AA
3DBA3F93
BCC2D94E
BC2DC388
3D7B1842
BDFCE465
BCD53DBF
BCE6BE66
BDDEE5C0
3D100F6D
3DB5AE4B
BD52B2C5
3D6C75E0
BDE681BF
3D6F5DAC
3CB6A4F8
BABBDD91
BDE600C8
3D70CA22
3D514329
3D76350B
BD3DBA8E
BDE6F36B
3C704FC9
3D6C0D92
BCA3ECFF
BD1859A3
3C2DF379
3DABBE05
BDE7268D
BD4049A7
3DD1B895
3DB09F79
BD82E2BD
3D263D5C
BDCCD297
3C80AC58
3D050698
3DDF8BDB
BDD092D6
3DBFDAD7
3CC4F66F
BD741B8B
BD8FC0FC
BDD4E149
BBD12EDC
BD11D7CC
BCE5EB3C
BDE29AAD
BD4425E2
3D4BE533
3DD05F46
BC07F191
BCA6EF08
BD71EF26
BDD5D3AA
BD26A495
BCA28510
BDD8A481
BD6A2CB2
3B680868
3D5D5AFD
3D6544DE
BD5F9A0F
3D47ACBD
3B1B11EA
3D7CB34C
BD28EC2A
BDFE2BA1
BD6E3FFC
3D50AE00
3D36FA25
3DCC820C
BD01533F
BDD31971
3C41376D
3DE0442E
3D6FA600
3D963F92
3D4CC035
BD444486
BD0E0C4A
BD52877C
3D7DF094
BDA96035
3CB8CE78
3DBC4991
BD88F1B0
3DCC5396
3B56B889
BB0BD48A
BD821BD3
3E0C14FD
3CF3C0F8
3DD1E538
3CF46E01
BDA8AEF2
BD7AA2C6
3C18729D
BD9456AF
3AE33DFD
3C87D0A9
BDA37DFD
BC266611
3D693271
3D8520B0
BC3AB1AD
3E1300E1
BCDD6DDF
3E0F7A05
BDE066AF
BD7A86A7
BD79DC90
BA40C684
BDCDDD65
3DF06F6F
BDA873DD
BB4ADEE1
3D3C823F
3D4B41A5
3C87693B
3D9A484E
BD1BE6FE
BDFD4F56
3E235778
BB64B928
3DB706DE
BD54BD34
3D0086A8
3CFC610F
3D8E7960
3D51EB6A
BC9819F8
BCD91BC5
BE175266
3E127F3B
3DF8BC25
3DA944F8
3E28BC48
BD155160
3E16BD97
3E3F00ED
3D3F8CE3
BD2B6C5D
3D7ABD00
3CF09224
BE02BC81
3D989CD5
BB790AC3
3CF40494
3E069A95
3C533801
3CFB57DA
3AE21EC4
3CE6DCC3
BDC48632
BB15B8B9
3E41ADA0
3D78D72F
3DE2B51F
3E09FA51
3D55EF4E
BDC09998
3CCE61CD
BD44CCD9
3DC36DCB
3C6E904C
3DA7E75A
3D7A5E5B
BCBD2931
3D0FF6D6
3D2077D2
3C71AA07
3CC2CAE6
3B169A36
3D16C330
BD05D567
BDB4705A
BE287D81
3DE83DCA
3D741784
3DCE4826
BD80384C
BE0DCF72
3D83CE49
BDE8DFD6
3E17F5D7
BDE50604
BD4B5DCC
BCAE65F4
BDEC5E7D
3DEA924C
BBA0587B
BD9D2E0A
BE07385B
BDCDABF9
3D40E1D8
BD76111F
3D3F9C73
3D6D70EC
BD4D6800
BD8A72CB
BDD264A3
3DDD82BA
BDD56CCC
BD3F2420
3DB245BD
3D2C3749
3C99295C
BD100DD2
3D85CAF4
3CC4C009
BC5256DA
3CD2543B
BD8DD304
BBBCF37B
3DDE5777
BD5C5EE1
3CDFF035
BDBB6AB3
BD545136
BD612B29
BDACC7E3
3C4BE4E6
BD32A373
BD9550F4
3D978F61
BDAA5CCA
3D03A417
3DE6A8B8
3D9505C0
3C9F246E
3C75DC1A
BCB66633
3DBE16EF
3DDFFE59
3DE3C35D
3DD2973D
BD4C8956
BDFC16DD
3E080430
BB33D2AB
BDAD42EC
BDA1C946
BDBBF61D
3A749BF4
3C466CD7
3C94B5FA
3D5285B1
3BB2C916
BD0745E2
3CC4D374
3D9CE902
3E570F56
BDDD315E
3C831050
3E232CD7
3DBDC669
BC7F8567
3DBE3374
3DAD6337
BC494F95
BE1428F8
BDB6921D
3E012E5E
3DB84F7E
3E064DA6
BDCB7F2E
3E1CF6D2
3DCE3879
3B60DB4D
3C7E773F
3D91570C
3D61484F
BE117A4E
3CE94CE6
3C5B0B94
3D985167
BD41A490
3D7287E2
3E2133C8
3D68DAD8
3D5717BF
3D2A2692
BC4CB606
3CC5E116
3D83C4E8
3D0B99A7
3DF762AF
3E20ED0C
BDFCFB6F
BDC2B39F
3CDC27CE
3D32BB11
3D8CA56E
3B484020
BD011E3B
BD9DF956
3DC78F92
BD9741EB
3CC5B373
3DC20A6F
BD1C62DA
3C8CD1C0
3D27FD90
BDA191EE
3D80518A
BD379723
BDC5895F
3D85C926
BDCE814A
3DC7B7CC
3BF7DC30
3DC3D27F
BDF0E1B3
3D8BFA2E
BD893A59
BDCECB47
BD5DA38C
BD9A2C2D
3CFCD75C
3C710221
3C867FE7
3D3765D5
3DC47130
3DDE4617
BD1DB085
3D273D84
3D99C53B
BDEBD067
3D3D49FB
3DC7049B
3D1EAB5F
3D3B10E0
BBAE9859
BDA37582
BDA7B825
BDF82620
BCC2A07E
BDA59874
BDCB26A3
3D5344F9
BD362492
3D8D406F
3D92E8BF
BC2A1426
BD9FA113
3DB8D085
3D1282EA
BD7B81EF
BD5D9877
BDC8337B
3DEA6494
3D2802C3
BD01E3DB
3D8E819B
BCE4BFCE
BB5B8C58
3D8DFF7A
BD3045C6
BD8C9D7C
BE06661A
3D13E654
3DB2E0EC
BDBE4007
3DD8D88F
3D336A8E
3D6401E0
BDD31813
BDE6461B
3CBD5F0B
BCAE5ADC
BDE3201E
3D73AAE0
BDA727FC
3DC7E7B6
BDAE8C2B
BB452813
BDAAA93D
BDEA87B5
3DB634FF
BD043F58
BDC0260B
BCDA0B8F
3DB111E3
BD5079D8
BDCE8563
3D7ECCAA
3D52F706
BCFC481A
BD48379F
3E0C3EE1
3DC4DF7B
3CCA68AA
BDBF78D8
BDC7E251
3DE2010B
3DB69927
BD4B00BA
BE0B444D
3D1DD6EE
BDC824DE
3D7DC5A6
3CE3C5C2
3CE5B648
3D9797A7
BDB5401D
3C9F43C2
BB8FA956
3C6D1DF0
3DAF950C
BD10A05C
BD46766F
BC3AB304
3D33BD52
3D13D94E
BDBB7A0D
BD961067
BDC278CF
3D18BC64
3CAEF373
3D981B86
3C6838E4
BBF18594
3CC87CF1
BCDE3504
3D3729D8
3DF435FE
3D092BD8
BD9570AF
3D84B451
BCC802D9
3CF46892
3D9D6CD0
3DDC1BEE
BD0F0437
BD2A4B08
BDC5904B
3DC6BAA9
BD8B7CEA
BD48D0B4
BD558921
3DC01943
3DCEC951
BDCE369C
3D83716E
3DD68DB1
3DAEC7FE
3D806A49
3DBB4C7F
3D52ABAF
BCA9328E
3D8C528B
3E20E94F
BE0E3CFA
3DD1B88F
BC146837
3DBBEE1F
3E391532
3CE86077
3D30984C
BCA6CF0C
BE07F1DC
BD883B43
3E0B2B6D
3DD60178
BE3E4AB0
3DEE6622
3CDA6826
3C49C8F7
BC646631
39CBD683
3C4AE699
3D02574B
3DAB2713
BDE86398
3C8F749D
3CCBD9C3
3CA48484
3E551EF3
3E1965D3
BC862330
BAE10A46
BD6C4C3C
BD4958E7
BDEC1177
3D18952A
BD84498D
BDB68C7D
3C48E953
BC9E58B6
BC8FEE35
3D0E1ACB
3D2E3BC0
3D9498B6
3D8C3A4B
3DD00E66
3D88C980
3DE3258E
3B3185F4
BD0CD2F7
BD9406AF
BD82FE59
BD13B17B
3D7E1A3A
BDDE03A9
3D77D1C9
3DBE3FD0
BC32B574
3D0A5F47
BDA8CDA7
BDBC4E29
BD62CA12
BC197E41
3C974795
BBD68573
3D972FD9
3DDBFB88
3DCE222D
BD985FFB
BC2DDF0B
3C524405
BDB9F393
3DC858CC
BC17F51F
3DBBE2BB
3AFB8547
3C18ADC1
BAA48129
BC68D887
BCE54991
3D986987
BDC2B8D7
3CE1A83C
BC59774A
3D8AAF3D
BD61E706
3DBDFD97
3D1F9B06
BDB413BF
3CFCEC3F
3CD4A5B4
BD1F7BDC
3DCC3058
BC504E21
BCB65CAE
BD43462E
BD192AD4
3D34DB14
BBF7BA4C
3DBFAC44
BE03C2C1
BD2E8211
BDE6601E
3D94C666
3D141ADA
3DC90B52
BDE7681C
BD82D972
3D239A8C
3DB5F878
3D84A961
BBE48566
3CED7732
3DDE5727
3D1A3DB9
3DCAB2A6
3C963B5B
3BABC14F
BC4B6849
BD3A9F36
3DAAE013
BCD7DCC6
3D268286
BDE265B5
3C024B9F
BD357CBC
BDC3906F
BC8174DA
BD55D58D
3D91EB69
3B9E2936
BD1EB85D
3CFCC41B
3D5D7AB8
3DD534EE
3DCF6D22
BC32AB03
BD434649
3D45FEAD
BD84EBD5
3D45617E
BD5C58E1
3CD94E0A
3D289DAE
BDD488E2
3D6E4BF6
3D879A69
3DF33071
3D734631
3CB4A7F3
BDEA1D23
BC6D001E
BC9291A3
3CEF3A7B
BDEDC9B3
BD86B294
3CA9F46B
38D7D6C1
3BC83172
BD913D6F
3D99838A
3DCDD814
3CDC5709
BD78F443
3D15CB33
3DBB64FB
BD6F39A4
BD5D77A2
3DA478E9
3DA0C73C
3D0BB494
BDA7F5B0
BE0FF00D
3D9B3438
3CB17086
3CDA5018
BDD1CD2F
BDE54161
3E061EE5
3DCB443F
BC3E7A2E
BC64B7D0
BC569D05
3D91F845
3C44818F
3D272A21
BDC4368A
3D1BA375
3DCE47BD
BD68FB64
3D9406F6
BE121C3C
3DD52F5F
3DDBB78E
BC634991
BCA71253
3E184270
3D7EF749
BCFF0061
BD0AF196
BCFC9775
BD81315F
BD1331B1
3C427CD2
BDBF0319
BD5118BA
BCD7689D
BD4034C4
3CAB7D92
3CFFCB17
3D22C3F5
3C4E651E
3D90D11B
3CF570F6
3D0CBB2C
3D89786C
3DD744DA
3D1882C6
BB77C142
3BAC8A22
3DA849CC
3D686836
BD43DDB3
BDBED760
3C38B243
3CB3641B
3DD06A57
3CAF551D
3E3C26E7
3DC6A55D
3E0F71B9
3E0AD0E0
3D9229A5
3D70AA42
3D8579B0
BE1770A8
B8C3B4CB
3C23EE87
BDA4839B
BE275C92
3CF71CD2
BCC98961
3DB35F85
3D9D70A8
BDDFB18C
3C1338E2
BD3EDDD1
3DAB3628
BC9563AF
3D516D81
3E4B4B58
BDC01D20
3D3F5F54
3DA74600
3D66AE35
BDC02A16
3DBA1A80
BD56DCC3
BD841FCD
BD39E615
BC8DDA33
3CDE6078
3C91EA69
BD106172
3DBEC880
3CA18A5F
BDE1BEC3
BD2859C6
BD4ED3AD
3DE50A63
3D7E4095
3D0E8292
3D9DBDD3
3D8F6A16
BD78B5A4
BD1C1309
BDE7CD45
3CF43BA1
BC7A1443
3D5B1110
3D93FECC
3DFB983B
3D1B4B83
BE0644B9
BD82F25C
BD1760D8
BD527853
BD027EA8
3D943530
BBCE5DDC
3DC4CFC6
BD13EB90
3DFF9C44
3DE9DE8D
BD4FFFAF
BD7C67A5
BC90FF6C
3DEA0C63
3D8165FB
3B73193D
BDAF5B4E
BCC3B724
3D53F469
3C328E12
BD405082
3BC4363B
BCC85EE9
BD531E86
B9BBC614
BCD98979
3CF9E529
3D701AE8
BDC508FC
BBD8FBC5
3B86C495
3CBB5C32
3DAFCE5A
3DB53CA5
39AD5DC7
BE09E5D9
3DBAB063
3B2710FB
BD831452
BD40BD14
3C47A3B8
3E1A000E
3E07330C
BD520528
3D07A66D
3DC63D4E
BD45AC9D
BDCDEB44
BDC78912
3D5017EB
BD8371B9
3D5FE9DB
3CB01EF7
BE129A14
BD2F3D02
3DC69164
BCDB133C
3E2A1AE5
3D90291C
3DAA09B5
3DC1822B
3DA256D6
3E300539
BDEA31ED
3C260395
3E2B77B6
3DFCD5FA
BE0A57AF
3D50A05C
3D3AC848
3D6F5B7D
3DA8B6AD
BCC0286F
BD11D24B
BC4F3B31
3DCBFEA1
3DFE14EC
3C980DCE
3DCB6984
BDCB2E37
BC545745
3BB95D59
3B817520
3D4DD5F4
3D177FFC
3D6DC7CC
3DD07464
BDD4D51C
BD11234B
3D73DDFE
BDE35D31
3DE3B652
BDF181E4
3CFE393C
3C46ACC2
3DC79CC7
3D884A6E
3CFA0DB3
3C3E4AA9
3C197BC7
BD0586E8
BD87AEAF
BD782CFB
3CF6544B
BC841747
BDABA8CA
BDA065EF
3DB7B496
3DCBE897
BCD5D676
3D22C65C
BD4F4456
BCE73F54
3C1AF7C8
3D45CBB1
3D7154FF
3D778B75
3DF7D323
BDA0E3C8
3D3597C5
3DD978B3
BBBB1392
BD259D99
BC2C47DD
BDAE831E
3ACFBA12
BD8D920E
BC0B0CCE
BD81975E
BD384F47
BD2D011D
3DDD00AB
3D19AC69
BDA06D15
3DE2AC0B
BC30CF40
3D247624
3DB38BD3
3ADCFDC7
BC91252C
3D5FE12F
BD11BD85
BDF0102F
3D9F0B1A
BDCD524D
3DD3B194
BCB2C23F
BDC48EB5
3D99798C
BD1CA667
BDF4FDC3
BD4DB6D5
BD244C38
BB2C1D80
3D6F9FF9
3D91619B
3D63915A
3D888D1F
3B56BE93
BD4DE972
3DACFA87
BDDEBAB9
BCFD62DD
3DDD782F
BD7CCE4D
BDB550CB
3DC2525C
BDAB5D89
3D27B5BF
BBE31DC7
BBD3210F
3D95A195
BDED1A0C
BD9A91E0
3D6C33B5
3CE6642D
3B9DF45D
3DB7F61D
BD75DBAA
BE1C4F5F
3DD5FF55
BDB718DD
3CCF00F4
3D8B7E42
BBA97F15
BD7D0524
BC946878
BDC3A28B
3DA5FA05
3D3B7FD8
BD6ADB68
3D7F99A1
3DCC1F6F
BDC4F5B8
BD5ADFD8
3D78AC36
3C54C2DB
3D9489B0
3D37BD74
3D730840
BD43376D
3D093B70
BDB6647D
3D482E47
3DFE0459
BD142BA6
BCEDB29B
3CD24ADB
BDBE9E0B
3DB1A603
BDA88E3C
3D87C1B6
BCFDC3AB
3DC65572
3D9851A0
BCF81296
3D95AC69
BD821D3D
BDAB0B94
3D74DE97
BD9345C5
3DF7056F
3DB6A39C
BC8BD3EE
3D38A6A5
BCDBE975
3CE0CDAB
BD99ED7E
3E1E98F9
3DC8043C
BBD30E2F
3B9AA41B
3E807536
3DBAB4CB
3D8D0FF6
3DE22CB7
BBCF0765
3E15DC31
3DEAE567
BB562FF8
BC8F3D1F
3D26FC16
3D51DC6E
BD8785D9
BCF95E9B
BE23AB94
BC693BA3
3D511407
BC9AEFEB
3DD93222
3C00F5E9
3BB83C5C
BD059F49
3E47D932
3E0FB86F
3BD8BA81
3E6D05FE
3DEAC672
3E1ABDFC
BCC16C46
3D14F9ED
3D74D7E6
3D8BCCF4
BC937035
3C70D453
BD9CA8D1
3D51887E
3C736959
BCB91184
BC42AC8D
3D8C2CEF
BBB4A05B
3CD5C36B
3D970F5F
BDE32B59
BCC195ED
BDD725D1
3C1ECB47
BB67E480
3DE42502
BD2658B5
BDB210CC
3CB117D5
3CA9DD79
BCCDF51B
BD0E9267
BD456D58
BD79276C
3D5F4A60
3D4C8F3D
BD8AB03E
BD909B52
BD6DC103
3DD182E9
3C9BB243
BD0BB931
3D97F438
3DBBFC85
3C90AAB8
BA9EF1C8
BDE299B3
3D75F296
BD0946E1
3D8C71D3
3DBB315D
BD94303F
3D0D67F3
3DD4A473
BBC982AB
3DE93E83
BD70CA02
BB6F0358
3C8B89BC
BDB69DD7
BD8DAEC1
3D97752C
BD7B3652
3DA195DD
BD6D4588
BD6A14FA
3DF08EFF
3D738D08
3C331CA2
BCE73A31
BCFA1E95
3DD35C4A
BDE6CDD0
3CB02699
3D1FD3D3
3DF556CF
BDC4B28E
3D353A74
BD4AF0DA
BC6F4B47
3D5B8D7D
3D675F4D
BD849022
3D4A9309
3D4B7E26
3D05C7D8
BBB70276
BC761FCD
BD991D8C
3D852106
BDD6ACD0
3DD62761
BDD38936
BC8A494F
BDE44FD1
BD5A1A8E
3D859B58
3D239162
3CF046E5
3D356A38
BBBB843B
3DB5F70B
3DE2D3A9
3D911008
BD4FEE42
3B682497
3C6B81A4
3DDF5A2B
BD90922F
3D6BB9F2
3E0BF74F
3D98BCBA
BDB10A70
3DA7A911
3D9A64FB
3DDBE775
BD97A56F
3BF1D6F2
3CDD6180
BC9993CA
BD94027C
3D6C3D80
BD93E282
3D8D33B0
BD096B91
3D9C3520
BBB77460
BC57AC64
BD5DD28E
BDFEB96E
BDCC7755
3D9BE721
BD9A3D07
BDB953CD
3D45C6F4
3DCC2E5E
3D01ECD5
3DE50E5F
3D1F8BA1
3DA61CDE
3CE4BCF9
BD8BCCF8
BD5EA293
BD2439D1
3DB35D19
BCF1BDD3
3D1C6360
3DEC6FB6
BCBF336C
BD445C79
3DE1C6A6
BD48A322
3CE6EE61
3DE5BF57
3D5C1BC2
BD4A30BE
3DA17612
3E01B8C3
BD596105
BD9BB084
BD13961A
3D667D75
BDDD12B3
BD810735
3DFE6A6C
BD532C93
BC8C12B3
BD43788B
3DC2B470
3D5BBE9D
3C8A432A
BCEEEFB7
3E14FD59
BD68CE48
BD374C60
3D232C1D
3DCB2250
BD0A4F39
3D79B0F9
3D94C858
BD3419B3
3CA3DEF8
BD8A25FC
BCCE0DC0
BD92A6DA
3D4BD00D
BDA7A96B
3DC0E8B7
3D79FCDC
3E17AC6C
3D57FB87
3C490EDD
3E5DBC8F
3DB71640
3DDABEEC
BBD222B8
3DD04A53
BE14331D
3DD6EB51
BD9EB502
3D9E544C
BDDAF672
3CA34971
BDD67091
3DD0E236
BD4AF12D
3DE16CD3
3D95F6CD
3D78C741
BD16EE74
BDE974E9
BCD98A96
BD8E526F
BD8D78EA
3DA8EC93
BD3CB9F8
BD7EE332
3CFD51E5
BC5FFCA0
BD8CBC48
3CF0733A
BD035C00
BDA35F1F
3D48A13C
BC369985
3CC18B70
3D9AE631
BB34BD37
3DEF00F8
BDCBE06F
BCA831A2
BD314BC2
BD2D787C
3DEE5AA7
BCF14852
3CD7D330
BC896E94
BDA2CDB9
BCDC4876
BCD96D7F
3D8D958B
BD2988CB
BCE60FDA
BDC39223
BDBA77A1
3D26166D
3D4C92D8
BD24945A
3D1F1CD1
BD0771B4
3D9C1A88
3D1F7F41
BDECE8B3
3D825114
3CAA1B4C
3C497FA6
3DB4BC5C
3D273640
BD3F13EC
3DC67F50
3DEADF13
BDB7C594
3DA7B3D6
BCD1B691
3C39A878
BB5F563C
3C5EF914
BC72D718
BC43FC6F
3DBD1C50
3D86CEE9
3C080C29
3DC852F4
BDD68024
3BF18CB5
BD53B955
3DA49A6F
BD6DA357
BDB3AE38
BE093BA4
3CF19051
BC4EED03
3CF9C82E
3E0509D5
BD8E2598
3E15A736
3DC9C9C1
3D40CE92
3CF077A2
3D9C69DD
3E0733EC
3CDF104C
3DE9B971
3CD59B3D
BD722569
BBCDD739
BD878B65
BBFEBBF3
3CEC231F
3D6A0BB5
BD2238E8
3D9F3CC0
BCED19AE
3C977FDF
BB811DA2
BDEC02CC
BD5DD1E8
BB8245D5
3AE1CD90
BD078824
3D871816
BCFEC9BA
3C151032
3DB36EEC
BD525F6E
3DF59ACE
BC2A0C8E
3DEFCCCE
BD77526A
3E24FDFB
3E3589A8
3CC87097
BC892A1B
3D965AE8
3E12C5AB
BDFDA755
BDBB4571
BC546F58
3DD87DD2
3D9FAF3A
3DDFAB42
3C5848A1
BDBAEC00
3CF4D280
3D8B59E0
BD328CE5
BCFC650B
3D96D8EC
BB452B99
3B8D63C1
3D927850
3DA51914
BDF31E4B
3DCBEB07
BD871D56
3D863FEC
BC00010C
BDCB9F70
3CF26EF3
BCA20813
3D4117E5
BDA64796
3D63913F
BD4590C6
BDB98354
BD729AD8
3CC1AE10
3DB29153
BD7070CE
BD379774
3D7CB16F
3CA626D6
BD8E3FFB
3B3F3B95
3DBDF6C1
BE07669E
BD585D34
BDE3C234
BB640172
BD2DA2AB
3D93A397
3C719478
BD9D270E
3D66F6F2
3D30C799
BDA87DA3
3D974113
BD96047F
3D4F713D
3BAA7EC4
3D9D78A5
3DCAC8C0
3A1E9F93
BD9DC50D
3DA74B4A
BD077AA8
BD0120C2
BCD73241
BCD7F0AD
3DC69FCB
BC958ED3
BCD05DEC
3AACD637
3D74CC10
3DB1BA5D
3DA859E6
3D2A43F4
BDC80F9C
BD76324C
3A3AC1B2
BD90C10C
BD164541
BDFA81B9
3DDAB061
BD0838D9
BDE7E246
3DAEA647
3D0ED7B4
3DB1B628
3D2ADB91
3D1E746D
BD370858
BDDFC8C4
BDA23430
3B2E98AF
3CB16208
BDC4E01C
3C94AD97
BDC1CEB5
BDC66A05
BBECA8A0
3D2C1EED
BBDB3B3A
3DBA4F41
BE0984EF
3D88AF6F
3DCA434B
3DCC2D09
BDBE964E
BD623636
3DD07A89
BD122DC2
BBAB8A72
3DED83A3
3A948736
3E09FCA2
3C7944A5
BD511E23
3DDC8C6A
BCCB0E3C
BCD4639F
BD4720FE
3CE19958
3D35F845
BD2F8843
3CB53E5B
BC567C18
3D7408CE
3D64C9E4
BD093C0E
BBDB2A89
3DD56C32
3DF0E51D
BD186207
3CCA05DE
3CB6E047
BD472210
3DC0ED62
BD2C7C50
3BD9D2F0
BD4CA639
BBB1EFFD
3DF22960
3D58FD92
3D9F6FA6
3D807532
BCA20E63
3CD0E13F
BCD4A9B6
3DA3FC12
BD9DEE9A
3D5DFA62
3D8F7450
BDBED2BA
BDD60CD6
BD909315
BDC70AED
BDEB473C
BD495107
BDE8A6E6
BC15C3EC
BDF453EE
BDC286BE
3DF7E54B
BC8E34A1
BD820CDD
3D6E7056
BC074BE4
BD0994FF
BDB3B238
3D019F7A
3DC949F6
3D621F2F
3E406AB8
BCCAD0DF
3DDBE59F
3E230B6B
BE018590
3D403CB4
3DFDBBE7
BD259200
3C55A87E
3DF5185B
BDC40876
3D6168C3
3E356D33
BCC652B0
BDC75595
3E01A1B3
3DCBD08B
3CD43E7B
3D9D2F0F
3D536387
BDF1263C
3E0AAB2E
BC5CB253
BCECFA04
BC037576
3DA59538
3CBE402D
BCBEBFB4
3DA17FDC
BDB1F833
3C3B1489
BCA2AA1F
BDDACD28
3936914C
BDDAFBF9
3C1C35C1
3D5CEB86
3DB9F738
BDA617F7
3DA5E4CC
BDE1BF3A
BDB52D68
BD80F981
BC984810
3DAECB43
BD0862C3
3D018FEB
3D699403
BC441F5F
BCD258A3
3DB0E684
3DD85775
BD1BBD25
BD5832F7
BD9A52FA
3DD69D54
BDCDA321
BD40BE54
3D75A894
BBE5E186
3D356FB9
BD51F5E1
BB118E88
BCA4EF99
BDE8723F
BD638390
BD877E8C
BD46993F
3C52990A
3C79698E
3D33AB61
BD50E5D9
3DC497E9
3DAF1242
3D86B340
3D5FCE6A
BCA0C1D2
3D5ABB80
3D9ADAE1
3DCD7F46
BD07645D
3DA95A56
3D91D693
3D494B45
BC8C5A00
BDD9EF29
BDCDE237
3D9C3029
3CA50FA4
3CB6E7C9
BDC6E3EF
3DAB4F4B
3C92CBE0
BD93061C
BD636753
BC62228A
3D3615DF
BD824F95
3DCABA4F
BDD0F523
3DDE7AE4
BDF06313
BCA69A9E
3DD5773A
BB8F013A
BD601D4C
3BFEFF7A
BC91D672
BC9CA801
3B9FA420
3DA17796
3D82BAF0
3D1FCDC9
3DB99E37
BE02AD42
3D70FE68
BCE274C5
BD8A9E60
BC4FFDC4
3D58C3FC
3D904286
3CDB6E4B
3DC99C1B
BD2E51E8
BDE63D0A
BD027576
3C238DC4
3C7D8CDE
BDF4D175
3D9D23FF
3DBAF688
3DDE19AC
BCDF6D3E
3D8D9D5B
3D9250C7
BD5281FE
BDA80408
3DB77034
3D7A4119
BC6E578C
3CFBC1C2
3CD7C7E3
3DD6E1E4
BCD2BE63
BDEFE082
3DAFC806
BD9616AB
3D9C78A8
BCE5BF88
3C8DEBA1
3D8B7FCC
3BCB8A82
3D7176A8
3C566D35
BCACD322
3D0B4B88
BD0C67BA
BD856052
3D84424E
BD455D4A
3DC9456C
3DA4CFB8
3DE0C292
BCE210E7
3D911E9A
BDF16FCF
3E0626F7
3D63B6A9
BE1A2861
3DE98FE3
BE193FB3
3CD19F6A
BDB24802
3C8BDB4B
3E05F994
BDD20DF2
3DA41B73
3CC0C1A7
3DC413AA
3C00420F
BDCD6067
3D8D1572
3E1E55AD
3DBBEA31
BD7DF25C
3D9B7DEB
BD77E750
3DB6E849
BE0B7023
3CF8111E
3DCFCCDA
3D07B80D
BD883276
BAF7DAC3
BD011E63
BCD52602
BDABFEC9
BDBE1A70
3DE79894
BD7DE810
3CFD9796
3DAADE44
3D2748BA
BC120C72
BD2A375E
BCBBE72C
3D89E9F4
BCD1B9E1
3E19589B
3DD6D207
3CAFAD3C
3E029BA3
3DDE141E
3DE99AEF
3D04B79D
3E1B7E87
BD1ADA54
BD004228
BD0D0636
BCB9CDED
3A881187
3D5325BA
3D80BE6B
3D22DA2D
BD7D6271
BD7D2976
3DF1FA57
3D492774
BE095F80
BCEFB702
BBD2A884
BD4D6DDA
BDFA6D2A
3D0C402A
3CB71F5C
BD198D55
3DBA7463
BDD845F3
BDB00F1C
BDB5FE39
BD413CB6
3DBC7AD7
BD159007
3C8AA433
BDC6972F
BC15EA4D
BC03D3EA
3D0ECC81
3D3EC400
BCD1E3DE
3D8DE5C0
BD65BD64
3DD83C19
BC9E3BFB
3DB0940E
3CF1E0A8
3D92DAD9
BD829EF5
3D7970CA
3C94C67B
3D19F438
BC523847
BD9263FB
3D6ACF44
3DB9B4AD
BDE85696
BDC4F8F7
3D5849A0
BD9ED61B
3C301EA1
BB9C58FC
BD5F968E
BC9D49E2
3B0B03AA
BCB634E6
3D4CF501
3D84CEF0
3D3BA14C
BCAFA804
3D86509A
3D325D83
3E18F182
3AA045B0
3CFE1ECA
BDCEDF52
3D8CEEDC
3D8B7320
3DF2CD86
3DDA2573
BD1514A2
3DF7B14F
3E3DE3A6
3CDFCBE3
BDA7F1A8
3D7E38F3
B99C088A
BDA59913
3DA61A7D
3CAECE5A
BC9CE8BF
BCB48FEA
BE04C698
3E03936A
3E062315
3E255489
BC1CE162
BD9176FD
BCC626C0
3D3B2865
3D93060C
BD012A24
BC845575
3D28258E
3E1B8BBC
BA6A056D
BCC33650
BC986755
3E136461
BDBF3C2C
BD16F8A5
BD6875D3
3DB850FD
3E048D3A
3E25E629
BD98E335
3D45B04E
BCCEFC82
BDA972FC
3D9797CB
3DEA06AE
BDB8A2F0
3DC0DE63
3DAB5D87
BD7D7086
BCA9DD09
BB628216
3E17C219
BC04E1B1
BD5A6C0F
3DCB395B
BCAC6701
BD2D0908
BC8A8610
3DC26557
3DAF0209
3CDA4383
BDA12038
3D594A77
BDE5B01A
BDB8B61A
38E034DF
BD8333C5
BDBBDE42
BDA33394
3CFA6D8F
BD2A990B
3D2F455D
BCCC420D
3D4822E2
3DA3D117
3D9E0087
3CDADEDE
3DE631ED
BDB9FA76
BDC745DB
3C0C2B3C
BCD6E037
BCD5C74D
BDAAA066
BCCD179B
3C944613
BBD2DD07
3CA09C62
3CBB8517
3D8E51A3
3D8A949A
BDE0BED9
3DA026C5
BAE7B1D5
3D892F70
BD01C6BF
BDC8CE5D
3D478DD6
3D0DF358
3C9A1865
BB884158
BDF2553B
BBC2C97E
3BC85402
BC5F5134
3BAD633B
3DB4EB48
3D9C87ED
BCE6F68A
BC41A8D7
3C9C7811
3B3DBDBB
3D9E24FB
3B8DE9CE
3D7CAB4C
BDA540CE
BDFB49DD
3DCD37D3
BDD7BBB2
BD925939
BDC54BFB
BD351284
3C9B9DB6
3DC38034
BDF73D2E
BA521B15
BD7AA184
3D07FF6E
3DAD9D26
3DD2DFE3
3D9F9145
3DB01B97
BDACB2E6
BD2B0D1A
BD21A341
3A98CF19
BDE581BB
3C27E577
B96E1445
3C9A959D
3D859CF8
3DB1C86B
BC908C8A
3DE95BB9
3C6D3253
3D2B30F6
3D19286B
BDDAEB1E
3CFCB090
BD4FB9E7
BCF46F2E
BD74B95D
3BA87B9F
3D951701
BD0946E3
BBD5343A
3CEA7108
3DABD035
3D486077
3D736D07
3D8CC595
BCA1A943
3CD7AF8F
BD88F038
3DC605D5
3D5A8684
BD8D839D
BDB744DA
BDF4BDA5
BDC67521
3D1B5271
BCFFD2FF
3D7DB420
3C0969D6
BDE0DEB4
3DA1CD00
3D86E99A
BD2059E5
3DD14FF0
BD8E2D24
BDABE989
BD032A7D
3DECCD58
BD56BFF3
BD2A57B2
BD83B0C2
3D0B0DC0
BC2D2425
3DC695C6
3D113E16
BDCE0BB9
BDEDF2C3
BD898B3D
BC3496C0
3D91B98B
BD248962
3CAC2969
3CE71D25
3CF3BBFA
BE001AB3
3BBF1BDF
BDB7B481
3CE505C9
3DD06ECA
3DEDA795
3DC57746
BD35BC9B
3D3A1882
3CDCB075
3DDC93DF
3BD78F08
3DC42AA3
3D70E9F5
BD5830BC
3C5024BB
3DA39B02
3D5F6B6D
BD7EE924
BD373675
3C63202B
3E333690
3E26F678
BD34D092
BE2145BA
3E588CD6
3DDD17BD
BB2A2C39
3D92A800
3E287019
3E37F2CF
3E0D2F8B
BDA0D241
3D62C67C
3E26329D
3D808989
3D522506
BCC0F78C
BD9AAE38
3D00544E
3D0B6FAB
BD112C78
3C880131
3DE5F0DD
BCE03DAD
3D8C3F68
BD43C8CD
3E2E984A
BDB2845A
3DA219CF
3E2F0FA2
3E013797
BDEE7434
BDF8D974
BDB4DB5D
3D7FD6C0
BD7CBF08
3D7BA047
BD08657F
3CE8141B
3D3F19F4
3D85D383
BDC3B308
3DC972A0
BD8BE1B4
BDA065C8
BDC7A4FA
3DB0E56A
3C711CCE
3D9740BC
3DAD20F1
3CB899EA
3CAC48DE
3DBC1D7D
3C60CEED
3DBE629D
3D908B83
BD9D173A
3E12FFC7
BD1BFB56
BE05DA8E
BD87EC9D
3DC17690
3DAAD020
BDE66019
BD185020
3DC632FC
BE019717
BD8AE621
BC1053AA
BD37D049
3D521CEE
3CC9EE96
3DA75AA0
BBA3E4A1
BD83AC8F
BCEB7B2E
BDBDD6CB
BC4470DE
3DCFFCAA
BD0741A0
3CA3F9F0
3B8CDA19
3BCDF42A
BCA1FA81
3D6348ED
BDBFB6E2
BDBF2CF0
BDDBDB0D
3D96A5A6
3D5FBCEF
3CFC0920
3AEB0D2A
3DCF02B1
BDB69591
BDB3567C
3C4919E5
3C5DB3FB
BE0A0A19
BDBD09DC
3D0506AA
BD995A70
BD164BBC
3D6C70E2
BDF14FEF
3CC419CB
3D9F224F
BD3DFCB5
3B221EF9
3CF77141
3DDDC04D
BDF2C5EA
BDB753AF
BBFF7698
3DDE77C6
3DA6D1D9
BD1F0BDC
3D76A19D
BDD816B9
BD1D5080
BC9A32D7
BCE4C5B2
3DE453DF
BD829873
3D7653A1
BD8A1A1A
BC415D2D
3DEC43F3
BDA75FD3
BB3BA761
BDB1BA57
BD1ED362
3DA1F0CA
BD95D822
3D417134
3DC81825
3C09287D
3DA95BD9
3D9BF5B9
3DC4F0FE
BD953B26
BD1820F6
BDCFAB9A
BD28B39B
3D3CC93F
3D9BD89C
3C4776C2
3DC7F669
3BCB75E0
3DD49433
3DDCFA92
3CED3700
3DA7CD63
BCC08B9B
3D82354A
3D09941B
3C1CCD0B
BCD6ACD0
3D84E4E5
BD36D572
BC64AE0A
BDC2275F
3C16A30F
BD1C8071
3C4A9F2B
3D8DA696
3C9EDABC
BD217D56
BD9B02EC
3E0D4013
BD69C9FE
BCAEAB09
3B6C0D85
BDD12DFD
3D1F042D
BE083132
BDE669C9
3DB8FB3D
BD960F14
3D387140
BD967CA3
BD8F6771
BD85E1B5
BD9D0A5A
BD65DCA1
BC03E4C7
3D8234AD
3D668248
3DC0AA7C
3D7ECF4B
3CB1D4DA
BCE19B81
3D8A5693
3DBB1985
BCADCE90
BDBCBE7D
BDA7BB93
BC3C8C02
BD1FFFF5
3E0DB384
3E0E65CC
3D16AE93
3DF6FFA8
3DE54D40
BCAFE3D9
3D003EAF
BD339D1E
3D2A1164
BDDF9F66
3CD9AF2E
BC75245A
BD9F222C
BC87FC79
BE0CB097
3D036304
BDF60AE9
BD2D63BB
BCD2A503
BC086E99
3E212AD0
BD51163D
3D9A91CB
BCA0B09A
3D6AC195
BD57A088
BD3AA59E
BD0C7A75
3DB8FDAF
BDD18331
3E1DCBD7
3D8D5AD4
BD8DFBBE
3D513A17
BD8756FA
BDCC1FB5
3D16E5C5
3D397C08
3CCBE4F0
BD902D0F
BC79A53D
BD95B513
B8127711
BD9213CC
BD5472D4
BCD0A53F
3B413514
3C4CCB40
BBBE54BA
3DB3AA25
3CC65DED
3D94F8A1
3D459C52
3DB878F3
3DDF7A3C
BCAB0AC6
BD53F8C8
BD899893
3D15BB4E
BDEC0070
3DACD7BA
3DBAF7DC
BCD44CDE
BA911363
3C2C14E7
BDB9E6CC
BDB28ED1
BD979C13
3CD1658E
3BFB7FFE
BD864188
3C9CEC95
3C15EEBF
3DCB859A
BD8FB7F1
3AF84678
BDBFC7BD
BDC90824
3C858A13
BD392F1B
BDA1A7F0
3D2FDD0D
BD426A73
3DC3A14C
BD602643
BD94387F
3DF214A2
BD1BEBE7
3DF785D9
BCD384BD
3D52FDBC
BD27281D
3DB5FA90
BDF139B2
3CF3BBFA
BD98774B
3B48FC33
3D0B3C74
3DA04F26
3D4219EB
3E1430A7
BE0364EE
BD739ABD
3DCD6100
BCC38B9B
BDC1791D
BE033235
BD900298
3D871C2D
3E03A05C
BD2A6CE1
3D243C17
BD34498E
3CB19747
BCD96841
3A122A8F
BBEE27E6
BD46B576
BCCC158D
3D7D39DA
3DD77AC9
BE161958
3E1D1C3C
BCB2A0B7
BCD8F5FB
BBDB6CF9
BCF99AE6
BCC09CAE
BD226903
3DD61CCC
3D0494F3
3C23AF47
3E230C9D
BDC3D622
3CFC65E2
3C8C3AA6
BDFB3CA0
BBEBF572
BD28ED67
3DAEFAB1
3D56AAD4
3E26E65A
3DB1B4B9
3DD6BFA2
3E23ADE4
3DBC10CA
BC67B836
BD1C690A
3DE55A75
3C89F841
3D5F42A6
3D93A119
3C577572
BD295D64
BD23A480
BC941E15
BD40BBB2
BDD59D0D
3D494198
3D35E377
3DB2ED10
3D9E48AE
BCA0E818
BC8A274B
BDF41ABC
3D8CD2D6
3DA1BF84
BD12816D
BC70E2A1
BCFA3AC9
BDFF4154
3D5D0FCE
3D9A6188
3D1715CE
BCC43AFE
BDB72544
3D247BFE
BDC55769
3C052188
3CC0B3E5
BDDE937C
3DA8A31E
BC5F52CC
3DF83233
BD738AC2
3D8E2FC0
BDC2AC55
BC6B0B67
BC77E60B
3C860411
BD11307F
3C9436C9
BCA3582A
BC39DEDE
3DBAF1A3
3C33C636
BD73FADC
3DE25BB9
BC3FDC24
BD83E950
BD33032A
3DC150F4
3DD69831
3C4E2CB4
3CC44626
BD3A3070
BDF6997A
BD1898EB
BD5F9328
BD0DEA74
3DC9437A
BD28548D
3DD6BFE9
3D9D9EE7
3DC0034A
3C6F1871
3DDA9B8D
3D46D262
BDD9AA4F
3DD59755
BD1BEF04
BCB00952
3D20A8FD
BD271B0C
3DA74C50
3D9511D9
BCB86541
BDC4CBE9
BD5CF90F
BD04E7D1
BE09A479
3CD7ED32
BC640F54
3D2426F1
3DD84280
BD817284
BDFD026E
3B01EC54
3CAFFE8B
3DC6E874
3BA61BC9
3D920949
BD83851D
BD28294A
3D918196
3CCA42F5
BD9F455C
BD078215
3D82F535
BDC60901
BD6B340B
3D774602
3C19C7A7
BD45DC3B
3DC68907
3CA09E60
3CCCC17A
3B04B6DE
3CE2600C
3DA0A2AD
BD6CD86B
BDCC6641
BD4B4889
BD6933A3
BDEC9F60
BD0839E3
3DA88941
3DE8AEFD
3D6AEF2A
BC9AD4D3
BCB90F56
3C94CCEC
3DF4AD8C
BC737D66
3CFBAFCF
BCDDCBD8
3DBF8905
3C6F692F
BCF44775
BDCBD95B
BB1ED5EF
3D038EE9
3C965ED7
3DBFE77F
3DB1183F
3CA618E9
3D8F1CEC
3CAE8381
3DC9BD3C
BD45AD7E
3D460390
BB85651A
BD42AF3F
BBA525FF
BD81B0CA
BCD46126
BDF419B1
3D1F05AF
BDF097DC
BD27E0D5
BDE63801
3DCDE2B0
3D0C04F6
BD9A4DE0
3D2B8831
3BCC4F39
3C174D39
3E004128
3DA0DA5E
BD75F4BF
3D07C74C
3DF7F3F2
3C0CD30D
BBAD243B
3C29FD14
BC93D8FB
BCD77887
3D2E5CF0
3D7858A7
BD157362
3E2D8292
3E2D4156
3CAE065E
3E3859F5
3D5AF6C4
BDBC6CCE
3C6A8A98
3DA1A8DB
BDE260CA
BE1AC291
3DEA52B6
BDEE9869
3D71A986
3DDC916E
BDF0E7AF
3D889DEE
3E4C4FC7
3DDCC25F
BCE17F61
BD8DDF9C
3E5B5391
BD778CAC
3D113ECC
3E2542C6
3D9BC90B
BD94302A
3D101ED1
BD0B54A5
3D7869E4
BDE02F84
3D64A6E4
3D580E04
BDDDAB10
3D82426C
3CA3C983
BC3E0346
3D97330C
BE0094ED
BD877ECB
BD95DEE3
BD8E5707
BDAEEAA0
BDB1673F
3DDCADAA
BD8A20C8
3D527F6C
3D8E20A3
BDE16A82
BD528F16
3D375EC7
BD8A1533
BBA8DF1C
BD496524
BC2A7E0E
BCA4695C
3CCD31ED
3DEF2554
BD6CAB8D
3D7778B0
BDF010AB
3BF502E1
3D92206A
3DEA5385
BD8BAD2D
3CC56DE9
3D561D2E
3D7B32D4
BD83E1E5
3DE4BF5F
3DD3C5CA
3D073355
3DF0303B
3C86A18A
3D99C0CA
BDA8DBFB
BD211948
BDDA14D4
BDA19357
3DCB3341
BDF98F06
BC385A04
BDF19DDD
3D083EB3
BD349965
3DF8812B
3C336FFA
BDDAA3D1
BD896306
3B035E19
3D6D4540
BC33536A
3D2A0527
3D91507C
3D8DFF73
3DDC549F
BD5CE053
3D9062F0
BDC0751A
BCD35476
BDB0926A
BC545420
3D88C1A5
3D134AFE
3CC1F508
BC8B8717
3D2F5766
3D8E5D3E
3CAEDA0D
BCC1F548
3D50CD50
3BB05F59
3D43E50D
3CF09574
3BA0F71B
3D50251F
BDA591A1
3DEEC6A7
BD0B0A25
3D388286
3DED1567
3B925F53
BD94CD5C
BD37926B
3D56CC78
BCEBCB2A
3D180A4B
BD7E5CC2
BCB110D4
BDB572B5
3CE523D6
BDB1EE2F
BD98BF73
3C387054
BD7F30DB
3D20F419
BDEC20E4
3D0A7567
BDBBA743
BDEF4F9E
3B24BCE3
BDCC1B55
3DC6E1C1
3C92A2D5
3D9B6D65
3D471EC8
3DC36851
BD3F3994
BDD06FC6
3D51FE55
3D97E6B3
3D67AEC0
BD2159C7
3DF47ADC
3CE185B1
3DFFD14D
BD2E025C
3DE351BD
BDA7AE75
3BFB0458
3DB617B6
BDDE7763
3D9BF620
3E0EC334
BBC3F477
3D98E0E3
BD9E6934
BD0B9796
BD6C0938
3CC149BC
3D7C2DAE
3CD4CD72
BDB4D9BB
BCC2C69F
3B5356D5
BC9A5211
3CC98CE7
BD684F21
3E03D32C
3DA7245F
3D5FDF99
3DCA9DBB
3D04E001
3DC21733
3E28A302
BD430C09
BDDC43DE
BD92AB49
3DCC88EC
BDA3C150
BD5BA94C
3E1CCBE0
3CD96FE9
BCC4653A
3E32B8EC
3D109081
3DD4141D
3DC94D9C
BDC722C1
BDF0E29E
BCE636B1
BDBCFF16
BE074CC7
BDFE3E1C
3D104014
BCC93924
3D9FCE8A
BDB6722A
3D5A45DC
3DC07464
3E46AC94
BD3A38E9
3B8C9B19
3DFA73B8
BD184E2B
3E119F57
3E0417A0
3D9200D5
BDE952C6
3D01F51D
BC69D84B
BA7C6E7B
BE1614FE
3D8F3929
3D7F0FD6
3E09B715
3D0D6744
BCD633B9
BD008782
3C3928AB
3D9F8E09
BDB97CD1
BC8ED35D
BDB649A6
BD8A8285
BD8A7865
3D32C0B7
3BA344BE
3D34B709
3D50B463
3DC6B275
BDAC188E
3D8EB92B
BD94D0C3
3D945CB5
3C72BFC6
BD8EA01C
3DD284B6
BDB9D4BD
3C931836
BE2443AA
3DB5DF32
BCE5961C
BB045B44
3DA4F403
BDBBA6DD
BDCA3BEB
BDA272A9
BC62A918
3DB3B367
BDC2FEEA
BD75140C
3D77A1FB
BC9C71BB
BDB9DFA9
3AC9B494
3D542C5D
3DAA3211
BD9CB233
3D3D975A
BDA3C89F
BD6A48D9
3D42F09E
3CEB5F29
3DBDBAF1
3CF8575F
BC9F0C95
BC97C94A
BD83AA88
3DDD791A
3DC52DA5
BD3EB781
BDFE9B99
BCD9520C
3E1C3ACC
BDBA2DF8
BDE3DC37
3E079145
BD08E12D
3D0B0F90
3DF77C10
3D919F9C
3D606F29
BC6073F4
BA4F9782
BD97BE83
3DF936D8
3D2D3855
BCF28BE9
BD0AD318
BDD544BC
3D8368A0
3DD1D78B
3D92B4BA
3D8312C6
3E111562
BC9CE31A
3C26F9DF
BD1EC218
3DED3F99
3D806C68
383F0234
3DD815F0
3DA9E4CE
BE01FFB1
3C0C11B1
3D4E9AD3
3D7CC7B7
3D80FDC0
3D34BAF8
3DEF22F3
3DDE3E2F
3CE01E8E
3A548B32
3E343F1D
3DFE13C0
BB8DD33D
BD4F428B
3E4117CD
3D466504
BC6A8D52
3D841C69
3DA11DB9
3E152F00
BC81BE21
BDF17E29
3BCBC236
3D6386B3
BCDFAF42
BD44829E
3D00B991
3C6DB255
3DAC7A81
3BD1F078
3E154A54
3DEFC9E1
BDD4D69D
BC24A0C9
3DACCEC5
3DD5A570
BD19E1B6
3D198324
BD1362D1
3BCC7524
BD5676F2
3D6939FB
BD9A6DFD
BDBB873E
3D16C8ED
BCA8E277
BDBA6D08
BD1FA00E
3D7CB5A0
BC57670F
3C4AAE6F
3DDC19CE
BD5A3C92
BDEC4637
BD1C0804
BDBDE6A6
3D91EBE0
3C30741C
3DECE1FE
3DCE58A6
BDE8D296
3D097B87
BD879564
BDB6E480
3DA24418
BC57A8B3
BDDAA914
BAF8DB74
BB11394E
3CD2082B
3D3FD250
3CD9FF75
BD7ACDA1
3BDB31EA
3D9A502A
BD92D9C4
3B7F3021
3DBBF7FF
BD6388B3
BDFB628E
BD58B8E9
BDBA761E
3CE4ED15
BD8C3F4B
BD3CC281
3DB53F45
3DA1F102
BD6A9CA9
BDA2055E
BE009B36
3D702529
3CE62E8E
3C080C74
BDA071B2
3DCDA88D
BD802D42
BCB4FC66
3D52C8E8
BDA87DE0
3D73C402
3D2C4954
3DC7AD13
39276A68
BCF73840
BB5DF10C
3DCE39A2
BD89AF8C
3DA15B11
BD48E155
BCBAADC1
3D2E7ADD
BCA2583F
3C74A249
3D140B60
3CC0B47B
BDA99149
BCFE59E8
3DE204A3
BD8365A2
3DA99EDE
BD6AB870
BDC660EF
BD087651
BD5690AE
BCA97DB8
3C97082A
3DEA527D
BD84199F
BDB374CD
3D95C431
3BD45699
3DBCF1D9
BDD0A039
BDA635F2
3D83D947
BD5ED774
3DE4FA9B
3DE31DF6
BCA25723
3DD37529
BDA25108
BDE97163
BC443E89
3D385C07
3DB688D0
3B8973DD
BD597B61
3DB541C3
BC07A24B
3DD0BC5A
3DCE6A83
3CAA8A02
BD3BCE17
3D9CD01A
3DD1A76A
B9DCDC8F
BDCA82D8
BDBB730A
3D3ACEF1
3DA836B7
BE008666
3DD9539D
3CDF7B25
3D558037
BD69A273
BD4739CE
BD4A97C6
3D3B0B9C
3C00DE8D
3D82820E
3DC0EB7C
BC85443D
BD994231
BCF71C6C
BD0FCA02
BD1DF724
BCE17F71
BD4B5FD2
3CBB421B
3CB3D728
3B52267E
BD38204D
BC0F7D97
3C818AFA
BCC86244
BDB82A24
3DC328CC
3CD804F4
BDF62BFD
BAC53EB9
3DADE93B
3D908BB2
3CC01C9B
3D8C3135
3E02F3C5
3E3167E1
3CEFC758
3E0F8C0E
3E229E74
3E136E51
3D99ED2B
3DB19CC6
3DA27690
3C20785B
BDB2C68C
3C6639B0
3E000CD8
3D5056B5
BD96C982
BD48A698
3BCDFE66
3DD50242
3DC6C6C6
BE298E14
3DEFB92D
3E0C2176
3DD7BA4C
BD361312
3DEE1B81
B9C2B470
BC9CB53D
3E28674D
3BA4197A
3DDE617B
BD32260D
3DA62516
BDC9245D
BDB81083
BC35E910
BDAE444C
3D2D3347
3D4448B5
3DD80308
BD8E9C43
BD80813F
3C8A7F4A
BC4B8707
BB9AC427
BDCCCDCD
3C233356
BD47B3B6
3DA49643
3D288639
3DF2CCA0
BCEAC190
3D7D7BEA
BDE71AEC
BDDD0768
3DB33E8C
3D945FF8
BD85DDDD
BDDA7566
BDCEFF02
3D1EA3E2
BB05E303
3BE6F62E
BDDD89B3
3DB4BA4E
3D475603
3DED57A8
3DB477E6
BCA6EABB
BD24243C
3D79BF2C
3D6C8219
BDF984D7
BD880FD8
BE0151FA
BDDFF0B6
3DC19E60
3CA16A13
BD1006D4
BD65AED6
3DB1D100
BDBB8274
3D69D6D6
3CDC87A0
3D8DFAEA
BDC4CF4D
BBE3548E
3C3BE84E
BDD42892
BB198B57
BD193E9D
BE0AE27C
3DB516BF
BDE11516
3CCC0B8C
3DA504C6
3DD9F23C
BCC8EDF0
3C4CB6B2
BC510D39
3D9F0C8C
3C992B60
3DAEA95F
3D431AC2
3D5273C8
BDCF9741
3D4EC81F
BCC6D35E
BDE84003
BCBDB1F2
BDE167FD
BDB2F2C2
BD10CCCC
BCABAAEF
BDAAC466
BD3E433C
BC196110
BDCECB84
3DCC333C
3D053541
BC2A8C91
BC3E4037
BE050828
BD48507E
BD9A2C36
BDCB89CF
BDAD7847
BD90E99B
BD929ABB
BE10EC9D
BD35426A
3D973CB4
BDD3A2BF
BDE82836
3B813BEA
3DBE1230
BDB3A90F
3C0A40A1
3D301821
3DC73B45
3D97E558
3C905E47
3D5377AF
BDC780C0
BDD5C041
3DE33E9E
3DDF8171
3D978CF5
3DC89A19
3DCD5D66
BCC5B52B
BDAA8F5E
3DDD0161
BDFCB193
BD5DF0DF
BDBE705F
BDCFEC2B
BD88CC07
BD9ABFD9
3D9A09B5
BD794B9E
3D894922
BD8BA69D
BCBB6831
3D809BE8
BBC926FB
3D1F8457
BC5E0650
BD8EB7B0
3E0E7E9D
3D98FCB2
3CD8BD10
BD98DB5B
3C8DBDBE
BDFABF27
BE0B46C5
3CFB9BA2
BE18F4D8
BD0DEF8A
3DC834FD
BD4AC6FE
3CC5B2ED
3B954059
3D8CCF87
BE137F8B
BDC7DCE7
3CEB7D97
3D710E4D
BAF813CD
3D85ECF7
BD48CC82
3A2CAC9C
3C4D757F
3DA24BCE
BD054011
BBA5E440
3E0F69B6
BDB96C42
BC066B3F
3E1420B6
3DF3B13E
3CAB72DB
3DEE8A15
BE09AA53
BE0F8BA1
BCA53676
BB8147BE
3CD80D88
BD979E01
BD359A41
3DA98502
BCCC4914
BE040705
3D2E2F1A
BC96C04B
3CBCDFEA
3D2B2621
3D88B0BB
3DD4AD73
3D3FD58E
3D1EF693
3E12E70E
3E0A61F5
BDBDCD1A
3D439BDE
3DA90929
3C7D53E9
3D363BE1
3CA0ADB0
BC0A2964
3D5A6468
3DA6822B
3CEDBA08
3BFFADB5
3DFA2466
BDA0C958
BC076CBC
3DBCDC6B
BD90CE18
BD975879
BDEEE633
3D7CB9F5
3D86C1A3
BDAEDA12
BE1306EF
3DEDC5F5
3DEA37F1
3DBFFEE7
3D32F8E6
BCA9DD9A
BCAACDC9
BDEA3112
3DFD53A8
3E064491
BC88B12A
3D6B1626
3DA2F88C
BDBAD3CD
BE020F1E
BDFE08EF
3DA44E26
BDF61042
3DEE9DB5
BCADDF92
3D54B163
3DABC74D
BCB5C9BB
3DB7BF1C
BD2B8BAA
3D5822B9
BDF05FD7
BBFF3A9E
BC5CE3DC
BDB41AF3
3D0EEDE7
BC8E9504
BDFC03BE
3DA7B984
3D9D6B2B
3D9B18AC
BCB5DACE
3CE7BA9A
3E07678B
3D25DB21
3DE2E0C1
3DFF20F9
3DB8F9DD
BDEAB0B6
3D43E96C
BC726EE8
BD2B7712
BD24E7BC
3E51A242
3DD46DEF
3C8E3EF8
3A09FC18
3DDE7A7E
BCC68E44
BD564871
3DA7BF8D
BD475A4C
3D9917E4
3BC1CC94
BD36145C
BE05323F
BDF04AB5
BCBEDB3D
3D34085D
3CE5ED0A
3DB20414
3D9CCE96
BCFA5053
3D4ECF3B
3D12D270
3E084F85
BDE680B7
3DCEA715
BD9FAC23
3DE79E85
3D38A6A8
3D88A59A
BC213F2A
3E1362AF
3CFDD63A
3E046252
3DBCB2C4
3CCD5299
3C87B44F
3CDA0E59
3DAFFEC9
3DB971A4
3DB6332F
BD058AEF
3DFE0D3B
BDD1F111
BDF20C94
BD500168
3DAD1DDE
BC6474FF
3D8E7405
BDF87CE4
3D569A76
3D238A94
BB943846
BCF0656E
3DA3C61A
3DBCD5C3
BCEB7752
3BC272EC
3DAF8A86
BD9AA212
BDC43AC6
3D9A9FE8
3D5A2A0B
3D592D3B
3D28F4DC
BD537580
3D46B678
3D5854E1
BD991B51
3D083F8A
3BCEB570
3DDBE566
3D264071
3CA6FD1A
BC8C6234
BDA206CF
BD52B27D
3D0C8F22
BDB37F6C
3D06A5DC
BBDA16A2
BD01A4BB
BDA894CF
BD12FBE3
BCAFC4FF
3CA532A5
3D7B29D2
3D5E03AF
BD893A9B
3DE44659
3CB4F555
BCC83C65
3D853F1A
BC8EF93D
BE0921C6
BDC34F61
3D0E4F64
BC913780
BDE1B7DD
BDE09B84
BD2A7C0D
3D167092
3D5D234F
BD1556E2
BDA08A4B
3DD37A42
BCE06246
3CE0259A
3DDA515C
3B257B4F
3D0EB499
BD8B2788
BC8AE5AC
BC3C0A72
BDC09954
3D0B042D
3D6842CA
3DB4E87B
BDA46775
3D1F502D
3D05BDAA
BDB01A24
BBE11707
BC281491
3DBBC31B
3DC392ED
BDB566C5
BDF5293B
BD7936EB
BDE2AB37
BD4D333F
3DC046DD
3DE3BDA3
BD52F095
BDBF7D9C
3DE4CF9E
BDB3C1D1
3D6286C6
BCF8C4E3
3D007188
BC9E48C6
BDE31C91
3DC4752C
BCA25FAC
3CF3BAB8
BD0D84A6
BD987086
3DBE8B49
3D17C8D2
3DA5C392
3DABC604
BB2CBF66
BD15F80F
3C66E014
3D9BC2F0
BD2D2D7B
3DB4E888
3DC524CC
3D36ED17
3CB08579
3D28A494
3DE10458
BC413351
3E0A856A
3DA2824D
3D74FD80
BDB3D6C2
BDD3801A
3D835042
BE107CE8
3DC6AAE5
BDE2B7E3
BDE9B3EF
3D9FC0D3
3DD3D109
3DDDF614
BDEEB4A4
BCDC3B3A
3CB3FCED
BD661DBC
3ADCC411
BCC4121E
3D20BAC0
3DB31345
3D8E6497
BCC9AFDC
BDB59778
3AFD2052
BDDB1A78
3B030355
3CA0DAD6
BD37E6B4
3DC0C306
BC6366E2
3CBF8958
3D9AC371
BD2F4E4F
3CDE47C4
3D1A9B6A
3C041D1B
BD84543C
3DAA3055
BCCB04C1
3B20E741
3D033592
3D2CCDFF
BD8C48FA
3B814712
BC0E4E4C
3D5D1A4D
3DEFA8C9
BCF772CE
BD39B5CC
BD28DF3A
BD8D4ECD
3DDDD952
BD1F4F00
3C18E1CE
3DF25504
3DFD4BF2
BDA43C06
3D82BBEF
BCD0FFE2
3E1B27EF
3B8A3665
3E731D2A
BCACAEDA
3E3D76AD
3E2BFAD0
3D738D1E
3D0E126F
BD13BAC3
BDFE82EB
BDEABE74
3E428B9C
BD5A73A4
3D54E232
3BE37B25
BDBB93E2
3E147A98
3D9D91B1
BD7658A5
BD30C20A
3E36AC6C
3E32E8B1
3DFF123E
3CEBCD9E
3DBA5A40
3D3B6E81
3E410426
3E292782
3DBDCF04
BE117B5E
BDD25697
BE01C8B5
BDC6D52B
BC3E5C11
BDFA44B4
3DE5F2CB
BC4307B2
BCF85C63
BD4C976B
BD990D25
3D9774ED
BD723B56
3C60E964
BDBDC256
BD925AE5
3DA6209D
3B47A195
3DB4DC68
BC81EA30
3DE64CD7
BD30B09A
3D5FC382
3D824A75
3D3C5EE3
BCE3FE01
BDD1BC12
3DFC122F
BD3BF394
BDB9D740
BCA0EDA1
3DD7AC37
3D64DD98
BCB93622
3D0B4228
BD46A23E
BDA98685
BC6D5DA6
BDD7B287
3D9DB99A
3D6E8F88
BDACB88C
BD892E16
BD4758F0
3D958303
3DCEA7E8
BD1C1A35
3D521A54
3D9E2DD4
BC88B6F9
3DF17241
BCEED302
BDC94796
3DE1F020
BD8F74FF
BD85EB4B
BD16C554
BD5C94FC
BCBE7836
BD9A1341
BDE9304F
3DE464BD
BCDCDC0F
BD87B976
BCD31A8F
3B3A303D
BDC61289
3B8341D4
BBC9F95E
3DE2BE63
BD9D9B19
3D52E57B
BD4443EA
3B9AE84E
3D4165F1
3D9DC56B
BC2A7CCC
3D4D9036
BDB2F634
3DB3E983
3DEC14C4
BDC8C219
3D4A63F7
3D831031
BD6216B9
BC9C2601
3CCBC550
BD9F2060
BCC8D35E
3D9A6961
BC9C66D3
BD597366
BDCB9EE4
3CF3AF2F
BDB13841
BD71B5D8
BDACE5C2
3CF1B50F
BD7A5E2D
BC17FB7F
3D437B0C
3D4CCDE1
3B814814
3D4DE068
BD9EB104
3DEA88FF
3DE06C63
3D123488
3DE54B29
BBAEE78A
BBC8754F
BC01C47B
BB4C76BC
BC2FB113
3C6C6767
BC92E042
3D60B55D
BDB89E93
3DA2852E
BDD9EE4A
3D908426
BDE3444D
3C61B3BA
BBD802A0
3CBA9075
BCCC82EB
BCAE3C03
3DAD13C2
BC6DD8CC
3BD99014
3C4EF63D
BB413265
3D4D0D64
BD978354
BD27CF4A
3D90CD90
3D84F9BD
3D4ADF2F
3E0D8324
3E0478CE
3BF43DD5
3D152607
3DAC2BC1
BE2A0742
BDA3928D
3DFBA0D5
BDDEA9E7
3C919E73
3D934EAA
BC80E8FE
3E0B1F97
3DDFBAEA
BD0B604E
3D037596
BD6C1D1F
3D98CEB1
3D8A81A9
BD400D8C
3DE40907
BD7FDCD5
BDFF249D
BDD85FB5
3DB83119
BD962FB5
BD77EFDE
3DD3791E
3DA6AA83
BD82000A
3DCEB1EB
BC885F8A
BD4FFE6D
3CDE0A2C
BE0217B4
BC98F381
3D521F5F
BD0C212B
3CE043F8
BB2D1C83
BDE7754B
BDC055FE
3D9DA261
BD7976BF
3D4E7C3F
3DDB7CD2
3B89FAAB
3D983848
BBDCD401
3E48A06D
3D111615
3D33A8FA
3DD73690
3C7A5216
BE31221B
BD1C9EDD
3DF99FD0
BD8519F4
3D15DF88
3D77939D
3D9BEA84
BDBD219B
3D474435
BC60735D
BD1B934C
3C712FC3
BE139F2F
BDE3EB5B
3DAE8D1C
3CDB94BC
BE22AD24
3DE018CC
BD8A85F8
BCE0707E
3DE3313B
BDD3F3BC
3D8BD1C0
3D79E3C1
3DF7C26F
3DB48075
BCAC7854
3D3433DF
3D43B4D3
3DA187C2
3DA816C8
BDB284D1
BD921EC8
3D85A697
BE01D63B
BB1CBA60
BD8CAFF8
3DD71887
3D89D64B
3DF7F9CA
BC352896
3D474BFC
BD709445
3DC09497
BDB7A740
3CBEA5D8
3AD5710B
BE004D6B
3DB4F35E
BDE5AFA7
BCC999C7
BCAE6299
3DF03BFB
BDF94FD1
BD84F678
BD0FFDE2
BDAAF370
BDA02977
3CDA7E00
BC68EC28
BDDDA4E3
3D738E88
3D42AEAC
BDC94674
BD0E37F1
3DF26561
B92BD734
BC65E5C3
3CCE5A86
3D66F646
3E0E6C10
3DCBACC8
BDA1F1C9
BC951F77
3DD9F50D
3DF5E972
BDB58A99
3DA53432
BCDB583B
BD50A19E
BDEBE7A2
BD3AEB66
BC80996D
3E002D2C
BD63ECC2
BC954B0B
3CC021FF
3CAB5305
3E290FAF
BCF78E77
3D9F0769
BB7171C8
BD479F23
BBA1B45B
3CE28134
3D0E749A
BCD9ABBE
3C2A2D25
BD35F817
3E0857BF
3D1E5896
3DF4419B
BCDDC4D2
3DD23C6E
BD61E67A
3E0555B5
3DE097AF
3DFD64E9
3CD6E3FD
3A7DE040
BC006FC7
BD55B541
3DB810E2
3DEAB36C
BDD3D3F2
3DDFD59A
BD3A02B0
3C25DB71
3DA03A36
3D63CD8A
BCBB3D68
BDAE6EA2
3D87CED6
BD5E9A7A
BCBEFF85
3CCFAF15
BD9550CD
3C8199D9
BDB5EEFD
3DD493AC
3CFFC0F0
BD78165A
BD8A645C
3C1504B4
BD12EE7D
BD93DEAC
3CA5C561
BD4597DF
BD1139E1
BCE88D27
3D3B830B
3D4CC776
3D88632D
BCB5978C
3DB9F667
BDC5D186
3C977C79
3DA61F41
BDBD3D6F
3DBE450F
3D92F7BE
3DE07F16
3DCCA89A
3D15E255
3D63065D
3DB4F4F6
BD2DEA49
3DA239D0
BD59D4F3
3D1307A7
3D1DFCA5
3DC17CE2
BD161FC5
BD8A3E10
3CB1AA47
3D3C3804
3D8AC720
3DDDEF1A
BC039719
BDB7A919
3DE2AF14
3DEABBDE
3D09E737
BD8FB4ED
3D679DC9
3DB3BB31
BD8D549B
BDEEA8A2
BD962F43
3C79A3C5
3D383ADF
3AD8DF2A
BD96DFC7
3DA6C5DD
BC120937
BDBE9184
BDE49A83
3DE9E73F
BA954272
3C724F08
3D6F0810
BDABFAB6
3BED981E
3DA5BFB3
3DB96B50
3CF83373
BD05FE95
3D84AF2D
3AC7A820
BD889B81
BD4E8D7C
3CFACDDC
3D9C7C2A
3D20A516
BBC1FF54
3C02E37F
3DE85ECC
BD1A6029
3DCCFF57
3D37B5A4
3D70EF06
BD1DA8AA
3DB371BD
3D4704B1
BD9197FE
BDDC0E8C
3DDA0DCF
BDF36D07
BD9A1552
BD41FD5B
BD5DA0D0
BDCDD3DE
BDA5BFD4
3DCD9AD4
3DD65088
BDE2A0CA
3D5B764B
3D1F3514
BDBD233F
3D5FA359
BDCF23DE
3C1011A6
BD9DE898
3C0BD850
3D562398
BD56FCEA
BD80CD4C
3D2E39A4
3D100F37
BDF682DA
BD8203E1
3D49C9DE
3DCC9808
BDCD9E0B
BD29FAC8
BDAAA18C
BDED2958
BC9931C0
BD8D2D39
3D8953E9
BD45F4FF
3D6C414F
3DA21D77
BD77B76F
3D7A587E
3D617338
B9FA58F7
3DABCCB1
BD24FFF7
BD19F1C6
BBDC90A5
3BA212A4
BC80049D
3CAE7168
BDEC18E5
BDE36D61
3E049B15
BC8406A5
BCD3C895
BD2A7772
3C82F3FB
3D9313C8
3C159508
3D4AAEB2
3D505E7A
BCA5EEC7
3AC9E693
3DD4F664
3CEC8707
3D803392
3DC1306E
3D2F9359
3D24801A
BB938B0D
3ADA59FE
BD10C15B
BDA41279
3DA228A6
BD4F51E2
B9A6CD5F
BCAFF2ED
3E0CE611
BE03C36C
3E5BD52F
BD0BDB7B
BCA36103
3D24D55F
3E2D7B12
3D1420A4
3E0B93ED
BD87E788
BDD82135
BC6B28AD
3CC3FF9F
BCBF0D72
3E016D0B
BD0E5F44
3E44DB09
3E393281
BD8D46E0
3E06ED1B
3E2182E3
3BC616D0
3DFFD7C8
3DA0F84B
3E226AB6
3CE84AD2
3E32B770
3C061BEE
3D15B061
BE0616F5
BD88983E
BDBB694D
BDDAE11B
3D7E9B84
BD1934BA
3B94EA88
BC402742
3DD2FDB4
3DB3376A
3C3C3A4E
BDC08B27
3D9C28F6
3D037D5B
BD6AD526
BD353FB3
BDB219EB
3D6074D5
3D633567
3D69D91D
3D44521F
3DD85C8B
3CC5BF92
3CB432CD
3D1930C1
3D4B0CC1
BD50149B
BCDD9887
BD5552EB
3B9D210E
BD48C4C3
3DB98B48
3D896CD6
BD28FB06
3C6F9F6A
3CFF404D
BDA8711F
3DCD6A17
3D469EE8
BDF4FAF9
BD0DECFB
BD2C838F
BD754E79
BD1E171D
3DDA0E80
BDC3F90A
BCA942FA
BD7A2B14
BD6CC5B1
3DC005E9
3D0F5F69
3DB7FB9D
3D4685E9
BDDC611F
BD00444E
3D66F9A1
3D9CA4E5
BDB2746D
BC77F5A5
3D1E79F6
3DBAAA21
BDD53F6D
3D9C9B43
3DACDAD8
3CAA9951
BDA88D89
3D8C3A8E
3D9F9859
3CE5ADBF
3D96A965
3D27E0F2
3DD179E1
BDBD1639
BDFB47EE
BDB77E67
BCEE5690
3D6468FB
3B9A7207
BC95FE7F
BC685FD0
3D55016F
BDB75509
3CE2017D
BDBDFD9A
3D81E40F
BC5E8EEC
3DA76480
BD84AFAC
3C8A0E2C
3D0D179E
BD10AE23
BDECE6E9
BD8FA4E4
BCF9DEB9
3DE0F33C
3D82EE46
BC94639F
BD0BEB8E
3D5777A1
3DDCF237
3B464BFF
BD6308FC
BC11FAFF
BD97F743
3D9B898C
BD5D68C1
3DA18485
3DF11744
3D7F7D43
3D49FC76
3B0F145A
3C909041
BDB55269
BDA808DF
BD26EDDE
BDEA58DE
3E01D875
3BE0AD7F
3D9C5F43
3C9F9F6D
3DD9E71A
3D92013F
BBAC2639
3DCF427E
3CFAEF90
3DCA4A8C
BD8DA788
BD462CAD
3D95EC4E
BDB82EFB
3DB510E5
3D1E3872
3CC327D8
3C114557
3D947344
BCB58223
3D4A996C
3E19330D
3D8B479F
3E143C88
3D651675
3DA6C445
3D400D9F
BD254DB8
BD209F2F
3DD4C005
BE1A9001
3D8513DF
3E09CC90
BD8374DD
3C3ED406
3DF33632
3E029E85
BD919BEA
BD1986F5
BCE86F1A
3DA9FE98
3D4CB3F3
3E0D45D9
3DA93CCE
BDBD2B89
BD705CB7
3E2CF7D2
BDF74436
3D67FCA4
3DD2C21B
3C92E7A9
3CBBDF85
3E489F1F
BD25E844
3E04CFC2
3E056A9B
BDC49956
3D2A7F30
BDAA7A07
BC86BC92
BD399314
BDBC4A82
3D71405F
3DCFB2C7
3E1C2B03
BD93EF15
3B3293E6
3D8FE3D2
3CEBB87B
BDBDB978
3D143D04
3D06FF76
BD8D0093
BD3FBBDD
3D31A089
3D5BF788
3C8DC13E
3CDC098B
BD92F3E0
3DC058F1
BD788D2D
BCA2EBAD
3CE73FBA
3D22351F
3DE5F4D7
3CF2246A
3CAFF5C7
3DCCD371
BDBCEE7F
BD2658BF
BCFCD751
3C33946D
BDD1F6A8
3DB4356B
BDA109E9
BD31453D
3DB911DB
BD80457B
3DEFDDC2
BBFF8A7A
BDBBBF5E
BD5DA64E
BD35971B
3E231623
BDB05A62
38E0E0AB
3D185D8C
BC8BC19A
BD2499F6
BDEDEE6C
3D096ABD
BDBCE5C6
BCE639C0
3DBD8974
3D7BC734
3DE22264
3CB743E4
BD37C07E
3D958D5B
3DB90082
3DBC8E3D
3D9D5003
BD5A1974
3DB1F37F
3DB22970
3CA458E5
3C6D558E
BB95217A
3E0E60ED
BD199748
3DF31CF2
3CD4F51F
BCB2E098
39BD098B
BDA784BF
BCB4F67C
BD4B11DC
3D36B28F
BD5EC817
BCC014D3
BDC969A1
3C91AE94
3D87C529
BCBE0D01
BD85EFBD
BD6C0450
3E0D8787
3DF1E464
3DAA96EA
3D5D5078
3D0B031B
3B9ECCDF
BDA6FF6D
BDA0CFC2
3DF0CD09
BDE0E219
3DAAF2D9
BC9782D4
BDB3E1A4
3C9E7E2A
3D4B952A
BDD42C61
3E0699A3
BD912D04
3DAFFF74
3D8029BA
3D9E8278
3D4BD58E
3C43A69E
3DAFA0F0
3D07F00C
BBAFD114
BE0A81CE
BD1DE6B0
3D9D083D
3CFDBE72
BDBC183E
3E1408F6
BD058B58
3D664DD2
3C43A800
BC8CAFCC
3E15AAB0
3D0A035C
3D5025DD
3C12366E
3C61BD2A
BD4A2708
3D2D10A2
3DCB2DA3
3D336A5B
3CDCE3BB
3E0AF2D7
BDB97D0C
BD9D2258
BD1644B0
BD20AE76
BDE861E5
BCCEA2BB
3E0EB8C4
BD1060F9
BD335CDC
3E0CE42D
3DBA8FBB
3D57E7BB
3C77771A
BDE0B81B
BDF79DCA
3D9EEB24
BCC24ABE
3C9390BC
3D77523F
3DAA5702
BC42DF03
3DD83828
3DA4EF81
3BF97B2C
3D7F02DD
BD0DECA8
BD123913
3D5DE8B1
BD98B9E6
3D059BDE
BDF0F4E1
3DC91F78
BD8A5DD9
3C3F0FE0
3D8BF0F6
BCF9A8FE
BD1807C9
3D0E4AB1
3C7E22FB
3D0DCA03
3D322844
BD86303A
3CC5759B
BD283DA4
BD8C1666
BD1B94C1
3BB0A610
3DA0B3A4
3DE25B8A
3CB43B36
3A78A36A
BD4D16EA
BD5BFB71
BD2D7249
3CEC5015
BCDE7785
BD722B41
3D74C163
3D6354B1
BD1583EB
BD70528B
BD917C2D
BDC04A09
BDC7251C
3DA63506
BD9C0B40
3DE5E2BE
BCD6476A
BD594ED6
BCE94B63
BDA41902
BD994F24
3D57F351
3D544AF6
3DEACAE9
3D057B4A
3DD1687B
3DAFE7FE
3D81E86F
3AF95038
BD6E9168
BD9CECD1
BCEAC82B
3D64D9BF
BD1572A9
BD160BB3
3D447042
BCB107EB
BD54BBAC
BC3E44CA
3D4E5C84
3D873AFE
3DB34CAB
3CCAC1B0
BDCE45EC
3DFC7D9F
3D97B47D
3D171393
BBFF0544
3D202656
3CEA49FB
3D875A14
BDD05987
3BCF4A56
3D0F22CB
3D8A2A96
BCA241FA
BD39A202
BC92F5C6
3C9A2FF7
BD455778
BD47F5F3
BDA01E27
3D308142
3C8B5D56
BDCA4594
3CA4246D
BD79860E
3C4109EB
3DC1DDEC
BC26FA8B
3DB5E5BF
3DB28C50
3DA4C9EF
3D8FFC3C
BC76AE3D
BD943295
3CBDC2F9
3DBB8FC7
BBAC9FC6
BD6CEA6C
3DF06290
3D3303CB
BD458682
3C42C349
3CA24FBB
3DC5A497
BDA11A30
BD463F85
BDEE4AD7
3DB5691C
3CF01567
3D9DD669
BD27731C
BD16CBB4
3D5EDC01
3DAC3BA3
3D3CAFBE
3DEE1884
3BFBE27A
3DB08E5C
BA9DE65A
BE017860
BDC00301
3DB9A749
BCEB3A10
BD69830E
3DDA6EDB
3D6E9C25
BCCB723A
3C8AFABB
BD828981
3D813FCD
3D02EF0E
3DE351B8
BDA06255
3D266639
BDF62522
BC911C02
BD6B1EA2
3D60E7AF
BD266C3B
