BC4F3F58
BB9B951C
BCECF1F1
BA84878F
BC8AF537
BC0E7584
BD09A7DA
BC616062
3BD05A20
BBFEDE01
BC9F324A
3AA5B028
3BBD3428
BBEAF501
BC930734
3B9DEF54
BBF4A112
3BD4C2BA
3C47824B
BC5D4EF0
3BC41457
BC947B01
BC0E4796
BC4F353D
BC20A6B4
B92E58C3
BC8DCD68
BCAD017B
BC854FC0
BBC4CDFB
BC06D094
3C966CDF
