BC692263
BBDC9E3C
BC4F0618
B9A61177
BBB1775C
BA716DEC
3CCD4238
3AF5207E
BCE493F4
3D105E14
BA64B928
BB9210E4
BCA8F60E
BBD70F9C
BC87E4C1
BC918A0B
BC9F04B8
BC8B0394
BC9358A8
BC487499
BC46612E
3CDA2D78
BB72C3AC
BC4DDAFF
BC967A05
BCBEB202
3B817EF1
BBF26AEC
BC987ED2
BB4370D9
3CCA2CBA
BCCA34E8
BC5175BE
BCC44C86
BBE0BB82
BCCA29AF
BCA2DB5C
3C1C2F2B
BC5D2AC9
3C9B95FE
BC5939EE
BCE03600
BBAE07D0
3C3CA349
BC872A71
BC03F619
BCA33C25
3CD6B9EB
BBD73BBC
BCD3B9DC
BCA1E080
3AEBC6B8
BC9A2E1F
BC87C31D
3BF64023
BC9ACE68
3C9081E8
3C32BB49
3CA5E3F0
BC7DFC85
BC2E4730
3CF2D494
BC690120
BBD1F830
