BBE0CFCF
BD46D27D
3D2CEBB4
3D400F32
3D7434B3
BD35D857
BCF786AF
BC914B3C
3DB27DA2
BCBA5F77
BB5B8725
3AB861B1
3DE98398
BD9733D8
BD93A7CF
3D763417
3DE8AB3C
BD8E1E35
BBA9FDD5
3D19FA95
BB680FC9
BDDBCDC1
BCE2B623
BDA63114
3D89A8ED
BB46E4D6
3DE22EAD
BD822BB8
3D9E5EE3
BC4C7D5C
BBA35B64
BD50A3DA
BCCF8A97
3D837DCE
BD41FFBD
3D208CDE
3C92DDFE
BB973958
3D12D5FB
392BC1BA
BCE00EC4
3D89DC1C
BD5B9D8B
39CDAC46
BCE23428
BD460FFF
BD6A035C
3B4F8F4A
BD5E3B5F
BD426F97
BA988CA9
3D29AD05
3B83258F
3CD27497
BD87D4FF
BD241559
3C273E88
3DB659B8
BD992836
BD82F2C2
3D0F3BC5
3B3FD192
3D71B480
BD6DE5F7
3D227BE9
3DA6B29E
3D8545D2
BD178317
BD90117E
BD4E594A
3BCB4C19
3D229615
BD4D3560
BD6F3017
BC20F0A6
BD174084
3CFC4CBD
3D50F548
3D458583
BBCE4924
3D587C66
BDB5EFF0
3B97D346
BD85FF61
3B78D310
BD2AB431
BCF9B5DF
3D57640D
BCA5A85B
BD9159F8
BD45B4C8
3D0CEBAC
3D1D23BD
BB8281BA
BBD3A670
3C9E4D12
3CAFC017
3D72E5B9
3D86499F
3D726ED5
BC90BA9D
3D8378A4
3D0449D7
BD5CB6F0
BD31274D
BDA822DC
3CA254EF
3D81D0A1
3D808753
BD912FF7
3C23EB2C
3DA0EC07
3D10B6FD
BD97608C
3D3D04A6
3C52A016
BC64A67E
BDAA66C2
BB34DE19
BD026845
3D16BD39
BAED0A2F
3D86B52D
BD2BF102
BDA53987
BD5C5F34
BD835357
BD54E53F
BCFE9673
BC269F51
BD3A6B53
BD1689EA
BD5D9B41
BD89D894
BC246DF3
BD620902
3DA2CDEC
3D86F646
3D79B0EC
BD404593
BD7D842F
3CA0B9EA
3D164FFB
3C027256
BD24C6D1
3B1A486B
3C90E2C1
BD3BD246
BD4ABC9F
3CE7F811
BDB3C152
BC996211
3D80563F
3D080552
3DAAC4AF
BDAC41EF
BB7D7231
BDB29915
BD9132F4
BD038F87
BD052056
3D2B1B2F
3CD86B21
3D328E75
3C8D4AE7
3D0942CA
3D9676FA
3CABD0E4
BD896A46
BDC0663B
BD3FFE7B
BD5EAA7D
BD13FFCA
3D936CAF
3D225921
BD0616DE
BCC90FE9
BD31D240
3C9BD58E
3D14C242
3C3968F8
BD905497
BD519EBE
3D2E26F5
3A92B21F
BDAB7161
3D213A0F
3CB62109
3D58FEE5
3D7DEFDD
3D9C7B90
BD07929B
3D6EB916
BD3A1B04
BDB26968
BD19AF49
3CE77E44
BBF32160
BD063C4A
BDB06A28
BD9C27A8
3C4F97C3
BBE472F1
3D519EAE
3B27B089
BC382C0C
3DA0CD74
3D996611
BD9EABBB
BC247449
BD123B36
BCCBB845
3D748411
3D87AAE7
3D517B17
3D91183B
BD1C3CE2
3D2429FE
BD639CF8
BD8B5322
3CBFCDD6
3DA62E9F
3CA7E9EF
3CBFE28E
BD8CA507
3D78FE8C
3D2D1D1C
3DA5D678
BD5E932B
BD54DF53
BDAE74E6
3D95ECD5
3CE3EF18
BD09AB5D
3D43082D
3C2A332F
3A74ACBB
BD7F4753
BD4EB6F5
BD3EE904
3D995471
3CD3D011
BD6508F9
3D476B6F
3D030CA5
BDB3EC8C
3C8CEEFC
BC9DFA11
BDA880AC
3BB160F6
3DACA3B7
BD44D301
3D5121DE
3D72F0AE
BD05363D
3CAB7FF1
3DA8CA98
3DD38ECA
3CD623A3
3D7ECB6A
3CBAAB27
BD1DCDD9
BD93CD42
3DF96C3A
BAC44DCD
BC0E5ACC
BCC5AA54
BC8B58FF
BD2D70DA
BD9241A6
BD46211A
BBA99E74
3C9B0A17
BD1E72FA
3D07DEA6
3D380558
BDBA36D5
3D6ABCE5
3CEF82FA
BDA0A9EB
3DA337F3
3DD8E8CE
3DD2E141
3B2DB459
BD07EDF8
BDB96122
3CF2ACBB
BD81E53B
3D18FF78
3D369A08
3D8CB918
3D331C01
3D8EE3F5
BD801A65
3D9A7A08
BB8FDF5C
3BB81BD0
BD0958DF
3D852AF2
BDC66F05
3D1EFAE0
BC324019
3DCEF4CF
BD862D66
3CFEBA55
3D054458
3D825DFD
BDAD601B
3AD3AF14
3C8F6395
BA0758FA
3D3E0A09
BD38784F
BAC39BF7
BC8A1FA4
3D7E1D65
3C978705
BA04C29D
BD4B952F
BD424C3E
3D15C99E
3CA60944
BD597B6C
3D101681
BCE13E1E
BCD174C7
BDE4BAC2
3DC079DA
BB257F81
BD90DB82
BD88B8E9
BDA2C288
3D7C5C2C
BA85096A
3C2D6A3C
3C212E6E
BCC6A7CF
BD327769
BD7302DF
BD5C1649
3CB1177F
BCC61AAC
3D842D9A
3E024B98
3DB33BB2
BCBE4398
3CE73F5F
BD77E3BF
3DAC2791
3D65872E
BC51BC0A
BD2E8135
BD1A4AB2
3C1E94F6
BD567906
3D2C2362
3D3E60F4
3CA5F92E
3BD39BC9
BCF77151
3D64EC10
3C2E08FD
3CAB8D22
BC888CEC
3D285089
3C84E6F5
BBCD1E2B
BD7A4411
BD778A10
3D78F6CF
3D6F64E0
3D834164
3D9B15E6
BCBAD5C4
BD10FA9C
3DD5496C
3C64AC32
3C384785
BB4ABCFD
BCC89D5D
3D2D5607
3D08463A
3C020B08
BD595C55
BDA37D6A
BCD85363
BD8E69F4
3C95D936
3D74D99C
BDAD1F77
3CC35D02
3C8B494A
BC98AC09
BCD99146
3D9629CB
3D1FAFA6
BC88ECC9
BDACAC30
3D949A7C
3D531C3F
3D459589
BD001160
3CA87758
BD46EC4E
BCE0AC68
BC8C3D00
BC2269CD
BD0A3D46
3D6EB49E
3D49DF57
BD70165E
3D68AB37
BC8EB331
BC9FFF2F
BCF4E80F
BAB5AF24
3D7B24B1
3D7DF6FC
3D8BE0DD
3D85C2B1
BD1BEA2C
3CBBBCBA
BCDC99C9
BD8FBAC9
3D4B777D
BDC264D4
BD90DD19
3D2FF35B
BC3E2ABE
3D63E740
3D8D0E86
BC747141
3D95D0DE
3D39500B
BD21D149
BD6E63DB
BD00C6EA
3B67F8CD
3D4AE732
3CE631F9
BCC772D6
3BC5362B
3D688A5B
BD730D79
BD458AE1
BCA5859B
3D804885
3D7BE49A
3D3A925D
3C11532F
3D1AE5FD
3D476A68
3D99C301
BC593B5B
3D54A45A
3D7BB741
BD7FD733
BCFF9608
3CD33E30
3CB1502F
BD5F1EE7
3C1E9A4A
3D06FC08
3D9C8028
3D8D52B5
BD0EE5E4
3D79128E
BD1415AF
BD6438AA
BD9095A6
BDAD0B29
3C1AB15C
BD66F9CF
3D56245C
3DA4DA19
3C061436
BD7A0006
BDD85ACF
3D90C3D9
BC69B2CC
BD3C65A7
3D38F2A3
BCA3D984
BCCC1D04
3D8D91E3
3B84C1DC
BD51061A
BD0645BD
3C8FCED5
BDA51C56
BCB8E7BE
3D11604D
BD3825EC
BD4BB2CE
BCADC99D
3BC8F5FE
BD857D58
3D1B894E
3C95F540
3B9C31E5
3D294E1D
BDAFC8DE
BD845CA5
BD216A63
BDBA20CE
3D4C4F41
BDA6EF10
3CB2842C
3D4489F3
BD83C488
BD830E3A
3C93B7B3
3CACBD32
3BFB7E66
BDAC6980
BC030CBA
BDA26963
3D1DCDBE
BD79B713
3CFDCB8D
BCACA438
3D43B330
BD6155C6
BDA778AD
3D4FEB98
BD1A3D3B
BCAA30BB
3D73D7E6
3D876D1A
BD397163
BD8994AF
BD003CC1
BD8100E4
BAC0B567
3CE7B39E
BB25431B
BCC992E1
3DC9D38D
3D530BFC
BBA5C724
3DAFB8F5
3C0776CD
BB673630
3D7D083C
BD362223
3CB10531
3D772BE4
BC1937CA
BCF7AF13
BCC6A61D
3D04B935
BBBA32C1
3D635B34
3D462503
BC01C984
BCACDBFC
BD6C7534
3CD5DCA6
3D78881A
BDF9E675
3DADD3AA
BD691FBF
3B2C00A4
BB73EF26
3B33F3B8
3B591860
BD8FF400
3C4E6B53
3B9DB32F
3D5EDE90
3C002AC8
3D03666F
BD5F5174
BCA6BC92
BD121B56
3D012CF9
3D29B503
BC957EB2
3D7AB406
3DEC2615
3C99BBF4
3D5108FA
BBEF1C18
3C0B24F7
3D227444
3BEFE8F1
3D509493
3D5C767E
3D967A2A
3D90A94A
BBB47223
BC8625BF
3DB1F0E2
3CF37700
3DC9404F
BDAC6648
3B7D8120
3C31FACF
BC492710
3D64900D
3D223DFE
3D8CD96D
3D5BFF0C
BABF7850
3DF1F478
3D63C115
3C17B8B9
3CE24C00
39D5B1CE
3DAB84DC
3D6456C7
3DD6B89A
3BCF45CE
BDC52E30
3DB403D0
3D34C999
BD382CAA
BD374DCF
BDAF3FE9
BDBAF009
3DD99106
BD2E831B
3D28FEFF
3D0D6559
3CA3ED9B
3DE0BFB5
3D586333
BCE51CD0
3E01E846
BC4AC15A
3CF0C205
3D547DAE
BCED6731
BD1DEB60
BDD7DA66
BC6E6C5A
3DBFDB5E
BD36C37E
3DFB8E74
3D7A0176
3DC33416
3D14CF88
BD0E513F
3D990C55
BB5EEFBA
3D436EFB
3D05E9DC
3D1D4D30
BCE6DA3F
3CB2B9EC
BDA9B134
BC98BA8C
BB028CB8
3D5ADA54
BDB2C6DF
3D8B07DB
BD5012FB
3C392007
3BB3FC71
BDA4A86F
3CAE1760
3D6B3FE7
3CFACEDE
3DADDED4
3DB9B43B
BD91E4B6
BD68EE3B
BD137FBA
3D66A6D3
BD9476AE
3D618E0D
3D7D6CC0
BD2B00AF
3DAA0EE7
BDA27E39
3D9F962C
BC69C434
3D39AFC4
3D2F8D26
BD61A0AC
BBEF6AB1
BD9342BF
3D97AA4B
BC86EC53
BBCB104A
3AEDFD1E
3D5D3984
BDBBB863
BC94F738
BD6FF056
BCE8A2B6
3C91E5A6
BC753E5B
BD176884
BD5F9462
BCE92365
3D3A4C34
BC73CD4C
3D43F5DE
3DAAAE18
BCBDE2C4
BD613DBD
BD8CE9FE
BCA55E8F
BC8D6EFE
3D2AA2F9
BDBEFA75
3D01E5AE
BD8C3899
3AE7DF78
3DA04638
BD9489B0
BD0FB110
3D5057CF
BCBB8064
BD1CB42E
BD3B502D
BDA734FE
BBE8A79F
3D3007AD
BCB9F4AE
3D7CC7FD
BD24925E
BD728A97
BCF81017
3D36472F
3C9714EF
3D83F426
BC6AB1BA
3C1380E6
3D377651
BD103EB4
3DA37636
3D962458
BD052EB6
BBF5E118
3D6007B0
3D27DA98
BCB1CF05
3CBEF7F3
3D229076
BC99ECDB
BD8243E1
BCCE9C80
BCCD3DF1
BCA4AF77
3D578CF5
3D70BE97
3CD9C94A
BC584C7D
BC38B365
BD9C4FBA
BC808A74
BD9C5694
BD602B6C
BD3F58F6
BD938315
BDB11728
BD7CA5A0
BCCB190E
BBE303C6
BD2C8EEA
3C9221AB
3D5F9E79
BCE90A75
BD897EDC
BD4FE965
BD8C52B1
3CFFBC38
BC44C750
BD5E3DD3
BC46ADB9
BCD1746C
BD5903F5
BCBAC57E
BD97FA58
BD2DD444
BD7DB71D
BD02E2F7
BCCD95A0
BD1AAB90
3D55355C
BD2CC0B3
3C5D23BD
BAE535A4
3D87A104
BCE4F44B
BD8105D8
3DAC2327
3C93E03C
BBAB10FB
BD070525
BD683907
3D5808D6
3D04F8E0
BDAC776E
3D47CE78
BD200B40
BBE01C35
BBEC54A7
BD35382B
BD96A364
BCA45062
3D0F4D28
3DA4E277
BD57B9EE
3D55E1DC
3D9A885E
3B738B28
3D6E7D19
BDA9DD8A
3DA9C0F8
BD4CA3F0
3D871D7F
3D8E4841
3CD9DB23
3D3F5EFB
BB4F4954
3D6F8162
BC3A6908
3DA6427E
3D1F20AD
BD8D857C
3B29D526
3D83DB0E
3D4BB71B
3CCCC1A5
3D90D907
BDAB705A
3CE84605
3D854702
3D023D24
BBCDEE60
3D159746
BAEA66BC
BCD1D95C
BD993854
3C4A5564
3C0023D2
B993588D
3DF32307
BD7AFEBC
3D768BE8
3D0221C1
3D250D05
3C4E744D
BCDDAEFD
3DCF9EE0
3D999E78
BD8570AF
BC6D8EE4
3D22BBBF
3D308BD4
3CD5932F
BD1BC4AA
3D6871C1
BC3CCFB4
3D956599
BD88BFE9
3ABB768E
BD435072
BA5149B4
BDD044BB
3D584BAC
BC58CBC9
3DE06B73
BDB42499
3AAD0485
3CDE5200
3D4A448D
3D401C2A
BD4F9960
3D2C6C07
3D3BBD40
BC61C770
BD74338C
BC5B50E9
BD06F301
BD432B1B
BDE3EA70
BC2F29EF
3D9F6E75
3CAFB1B4
3CF9BB7D
3D6F5AC1
BD1EE67D
BDC62F24
3D216B5D
BCAED855
3D7BE6E6
3D21D99A
BCA2C14B
3D1B684B
BD3E097E
3D58006A
3D4DFC65
BD1F5791
3D20139E
BD8B3C98
3D39BD3E
3B777D25
BD2CD020
BD0E772F
3A1F8871
BD6DB3A8
BC67672D
3D9026EA
3D0FB56D
BD6FCD2A
BD512468
3DAB638B
BD4095D5
3CF158A3
BD7F53EB
BC8074B5
BD3FFF27
3DACC83D
BD996F22
3D502649
3D93ABD1
BC2304C8
3DB8B719
BD10E10C
3D42D48C
BD5DF40F
BD1686D0
BD576ECA
3D599E6C
3B9A345F
BC14FB7A
BD905B96
BCEE18AD
BD52634A
BD0BDC09
3CC8558F
BDA77149
BD6CA7D6
3C47CF42
BD2F01C9
BD6C80E2
3A72FFE7
BC5C382F
BD29E3AC
BCE30117
BCD1B56F
BD8A74D5
3C854C0F
3D06A530
3DA00267
BBE43DD8
3CF4D62B
3D94E43C
BCBD198C
BD8CDF01
BD08C6F1
BD73DB87
BCABE2ED
BD532823
BC95F032
BD2C9AF1
BD9D10B1
BD42AD4C
BAE858EF
BD97CDA0
3D2A8B24
3D7A021A
3CCD247B
BDACC892
BCDE2C8B
3CFD10E8
BD43F2D4
BC3EB796
BC1F7F2C
3C3750BA
3CA6D2AD
3D7C3967
3A016DA9
3C4C1DDB
BD4DE4B2
3D4522CD
BBF63465
3CEB0DB5
BDAB3B4D
BD683A0B
BCE7C948
BC818551
BDA8ABD9
3D962DFE
BBA99C9C
BBAEB41D
BB6223CC
3D16B975
3D8FC78B
3D709F95
3CC24B4F
3D2EBCCC
BD96CF53
BD8EA253
BD8DC65A
3BA16931
3DB3CAA3
3D8FC100
3D2E68FC
BC14E387
BD8B5361
3B902EE2
3D90C0E9
3D041917
BD52DEF0
BB0C901C
BD13596E
3D35A20E
BD5CB11B
BCF5D9E1
3D8C4B60
3D5D48BE
3D28E928
BD38B62F
BD070EA2
3D14B0DA
3C9BB75B
3DB922C4
BD021FF3
3D01EC4C
BD906D00
BCCCDB76
B9F71CD7
BC072340
BD30132B
BB6DD302
BB3AFDC2
3D87F06C
BD9C4F9E
3CC81C7F
BD226CCA
3D510D3E
BD4B6955
BDB6CC3A
BD5FAAFE
3D7D480F
BD9BB6E9
BD9F0063
3D566AC3
3D70FEA3
3D3006A9
BCAF4F0E
BC7CFBFF
3B756CD4
BD9DE0F5
3BC4C85C
BBE543BC
BD97E5CE
BD36F4FC
BC949492
BD612B81
3C19CEB3
BC8D02BD
3D4F0795
BBAAFD85
BCEAFEFC
3CFDF7B8
BCF70C9C
3D669A59
3D32FAFA
3D7B5D39
BD255E36
3D636EC0
BD8D2EBE
3B81F4B7
BC2576DD
BCA7A6DE
BB1C3124
3D6FDB3D
3CE9C3F4
BD23257F
BD6F30B2
3D05F430
3D7B5853
BCF58253
BDA943D1
3D898425
3D51E5CE
BDA275B5
BBDA9BC2
3D8B3170
3D54EF15
BC4C5A77
BB6ABDF9
BC7AC4E2
BD5A7BAF
3D4B2146
BC554435
BD1E6D33
BDA751D6
3D0F0643
BD62B029
BCA95214
3B209E9C
BC046D0D
39840C14
3D2D7FE0
3BCE855F
BC9F292B
BD8D8C4C
BCF1530F
BDABD7D8
3C6610EC
BCE9B896
3D903DDC
BC77DF80
3C4DEFAD
3C9E6C77
BD59D76F
3C98B3F1
BD2F919B
BD9B4ACE
BD818661
3D5FDADC
3BA5A0E4
3D03778C
BDAED72F
BDA2AB81
BC339289
3D3154C7
BD5F1190
BC6C203A
3CB65FF9
BD9F9ED0
BA06B693
BC776C1D
3D49E99B
BD79C87E
3D15F9C2
BD85390F
3C97E7B8
3C7CBB67
3D986C8B
3D099DD3
BD235929
3D672D9C
3D4FB61E
BC81B62E
3D125D75
BBCFA300
3D9063DC
BD4383AB
3D0F2F53
BCC24AC8
3D828E51
3D886339
BC14014A
3D2B5104
3C80CD6B
3DC4EA2C
BCEFC0B8
BCF38497
BD32EF2E
BCF66649
BD350A26
BC9F35E0
3D44BE0D
BD331E3D
3D823B81
BD95212C
BD14EFFC
3CDFD08B
BD14F91E
3D88847E
BCDCC12C
3D2AA654
3D9B1285
3C8AAB95
3D2F523E
BCC29AF0
3BED78A9
BC869271
BC4E48A3
3D8C4057
3D564CAE
BD5A479C
3C9B3B90
BDD49530
BD28821D
3D86BAF6
BB9C96CF
3DC185CA
3D303DF9
3CD35D75
3D8F2327
BD874F66
3B3A95BE
BD54A8EC
BD039FC2
3CA40F8A
BD571DEC
BD1D7455
BD6DDA76
BD2E90C2
3D388451
3AA42690
BD368A02
BCB548D7
3D528358
BD957DD1
3DE9D5AE
3D616D02
BD8C41F8
3CE85C9B
BAA5FDAB
3D56E128
BDA3E59B
BD4418EF
BC10CE2E
BD763348
3DD4DF1A
BD1812A6
3DBFFD5E
BC4B6625
BB6E27BB
3D9CCC25
3C3F0D47
3C7F9F3D
3CADA829
3D99FAFE
3DC8862D
3B596084
393FB35F
BD59BAB1
3DDA45F4
BD15972E
BD22E6D2
BC16738A
BC9181B8
3D78EA7D
3D1307E8
BD46B21E
3D54E4C4
BD8C72DC
BC8BDF7C
3D91FD27
3D91CEBE
3D9B8A6C
BCF34587
BD91A1A4
BCC7CF3C
BD93B85C
BD79F738
BD25F2B1
3D86F70D
3CF68A3B
3CCA99F7
3D4DF340
3D8DD304
39F194D8
3CF9EE7E
3D38016C
BD4F95CA
BCB5B655
3BFC342E
BDBC1591
3D1AC81B
BD821D55
3D09CAAC
3CC15DF4
BD9AE0C3
3D75523A
BD549B70
3D92A456
3DEA183E
BD1F1653
BC8B7945
3C065AA3
BDD1CE1D
3DAF32B4
BCB7E996
3E0D82AC
3D3BCD6B
3D17D970
3C1AAD80
3D27C42C
3CE3A5E7
3A93E1CA
BDC197DB
BC6F4842
BCF9ED3C
BD7F3708
3DA4AC4F
BCF798C3
BCA9F517
3DA51C6F
BCA243C2
BCD2D143
BD2A81DC
3D157F5E
3D15E2CB
BD5F07EE
BCC8FE81
3C65E542
3BA49850
BDAA3B0D
3A00A0FA
3D88FA4E
3D193C67
BCF2A33B
BD85435D
BCE2F49C
BD6E0417
BD812497
BD46B8EC
BD77999A
3D6653B4
BC1C325B
BD538C2C
BB9682A3
BA42DAB1
3D8CFD96
BD239B9B
3D6C6340
3D1421E6
BCBB0616
3D957711
BB02552F
3D9E4948
3D0815F4
BD6E34FF
B7848A3E
3D2BA6A7
3D18F3A2
3D77809D
3CFBAA5B
BD8EE294
3D01B288
3DA04CF4
3C790646
BC41506D
BD9CB5F8
3D2864E1
BD65F151
BD888626
3B4EDFA2
3BDDE0DC
3DA86C70
BDA4C160
BCCF9757
BC0B3B1D
3DACA91D
3D27D285
3D9A1EC9
BD8CA823
BC87180D
3D044BC2
3CF60D58
3C0B35C9
BDAE7E2C
BD0A670C
3BBA38F6
BD4191FE
3D3FCB1F
BCACA4B4
BD5CCEE8
3D684066
BD6B6BFF
BCACE0A9
3D5F84BD
3D2DEA4E
BD80BC24
BD6F9386
BD1F29B1
3D61162B
BD8C11E0
3CC8B04D
BD098242
BB7B9E9C
3D87BDCE
BCF12D09
BD8389F3
BDAD41E4
3D999D38
BC7A5D34
BDA159CB
BCEECCB7
BDA66D7E
BC35E3C7
BCA04C86
BD80B260
3AEC8CB1
3D77141E
BBBC9689
BD11BBDA
BD54CBED
3D850EDB
3D622480
3D66F5D0
BC892141
3CA0F0DC
BC748C6F
BCA201C3
3C190946
3D3BE053
3D192C5F
BD9703AC
3DBFCF76
37D89807
BD29B284
BD86CD55
BD441904
BD48C4C3
BD98D146
3D2BF950
3DB19891
BD85F4DE
3DA97C14
BC29E3D4
3AB8BB9E
3D510386
3D557D9E
3D0AF011
BD3C0B69
BC957E92
BDB4064D
3D93A9C1
BD9F53C7
3C6879D1
BB8BFD64
3BF77A35
3CC57347
3DB47CD6
BDAAE536
BD8DA688
3D7F1292
3BAAC24B
BDB12739
BD048523
BD2631A8
3D91F032
BD859142
3DA805CE
BD8788A0
3C78C7C8
3CDBF635
3BC8E93D
3DAFED85
3D45BB38
3C9A2113
BC9CC477
3D383CDD
3D5D6FD0
BD653E73
BD1FA3F2
BD60221F
3AB6E483
BCD98415
3D770474
3D227D4E
3D1CB0CB
BBE185C1
BD987E0F
3D967C0B
3D71322C
3D90BB20
BCC62254
3C0C28E3
BD069426
3D8DE94F
3CFEF96A
BCB3010F
BD648325
BCDE094B
BCC5FC64
3C1BB2EF
3D93A1A4
BDA4AFDF
BC4FDE44
3CBE7AF5
BC6A3B7D
3D66472A
3D0C7D51
BD8BF6DF
BCCB6026
3DBDCCAB
3D94D676
3D5A78B5
BCB5CA0C
3D7526AE
3DA125DE
BD9944C8
BD79F0FD
3C3C5D49
3DC06C18
BD3D31EA
BC93B0BC
3D2BEAF5
BD054BAF
BDADD825
3C1E3184
3D7D3DBE
3CAB7F2F
3CA5C953
3D84A36A
BD0C1146
BD3B43DB
BC2A9A9E
BD4A6427
3DB40932
BCC6C942
3D16B1CB
BD823005
3DB6D59A
3CD869CE
3D435FFC
3DCDD505
BD55DF07
3DB158F1
3D3A5287
BCC3C02E
BDD7D4EE
BC6CC692
BD66E2CB
BD3E6A5C
BCE37982
BDC34158
BB70E302
3D7886E0
BD66C6F4
3DC0A307
3C1600C8
BD4BF648
3CF69162
3D3CF8FD
BC69B09E
BD1FFF8A
3AFD3A7E
BCBA52FD
BD32E987
BD09DDDD
BDA975AA
3D9485B0
3D42759B
3D74D643
BD5A6C50
3DA0D221
BD0CE9D6
3CEC8B84
3D875683
3B66E7D6
3C904E0C
BC9C8C43
3D46B861
3DA4F16D
3D6107BD
3D131571
3D3696E8
3D41F0A3
3D00A798
BD732AB5
3D209905
BCE76788
3D976B24
3D9B41CD
3B51B514
BAB0B56A
BD7BAED2
3D2476BD
3D0EA2E0
BD4CA760
BBC32544
3C8E505B
3CFB5185
BD2313C6
BD5828E4
BD011366
3CE5A9E3
3BA7C744
3C6764F4
BD796E79
BC2819C5
3DB43D9B
3DAB4554
BD9F4B9E
3D8319BA
BD260F06
3DC50B3B
BD323793
3D4DD855
3D5BBBD3
3DA97D6B
BC49006F
3D099705
BD82A7A6
BD9C5A5C
BD257708
BD1B86C4
3C42647F
3D45D128
3DA55F19
3D427CCA
3CC81025
BCEAAFFD
BD1795E4
BD9FEA10
3DB56988
3D2030C2
3B5CB827
3D303768
BBF0FC2C
3D43187B
3C6E8D31
BBF013CF
3DA4D3A7
BD279CE2
BDA63D92
BBFBD92A
3DBC30F1
BCEA3508
3CC9625A
BD7DEBA9
3D2842A7
3BC2C9EA
3D6F1CF6
3C96E8E5
BDC4112C
BD97E1ED
BD56161C
3D6B9011
BC4C9F15
3D857C6C
3D691F28
3D221BA9
BD557C03
BB971AB9
3CFC68F2
BCA1F548
3D9A2AF8
3D5C7046
BD766824
3CF2BA67
3D2ACCE8
BC767959
3D8BECCE
BD8BDC57
3D9A1089
BBC139B1
BD904508
BDA39365
3C9A40EF
3D56BD21
3D41D296
3B3C1E29
3DDCC3DC
BCC13A4D
BCCF06CE
3BB17F3E
3BFE1CE6
BDA6D677
B9C3BB81
3D0EC715
BD8F18FA
3C022330
3CD0F850
3DAA9DBC
BD901642
3D2FBC33
BD1F69DD
3D2E3123
3DA51B55
3D8561BC
3D37AAB4
3D5A9CFC
BD9EF4C7
BD024039
BC1002E2
BD368B32
3C02631C
BD2CB8A3
3D49F8FD
BD85EE2C
3CDD478F
3C8CB4DF
BD6470DE
3DC59CFC
3D6E9170
3C84296B
3D3C9B44
BD2A9FA9
BCC26EF0
3D269AAF
BD7DEDB7
BD969968
3D2AC736
3BD1EC06
BD0C938C
BD3AAD30
3D61D426
3D39D74F
BD12B37E
3DB55FCE
BD7C825F
3D824974
BDAF936C
3D62A4A3
BCFE60E4
BDAABFFD
3D160007
3CD5B569
3CAE1B61
BB6B963C
BD7DFC4D
3D5A3134
BCDEF9EB
3CC2CA60
BCC08FC3
BDAE25E4
BCDC2463
3DA4F276
3DB1AF23
3D0174E0
3DB5F404
3BA8264F
BDBCD192
BD049992
BDA6DB88
BCAF234E
BC0DADDE
3D79F9D9
3D4DBCD4
BDA2A44B
3D903FF0
3D4107E8
3D4CDF77
3D4F04FB
3C0E6239
3D591D93
3CF9D0A1
3CD74251
BD488773
BB3CF4BE
3D0AE742
BB86BC1C
BD6E0F4D
3D924485
BD637791
3D95A11A
3C44F629
BB7AED47
3D7B4388
3A31F0D3
BCFD4962
3D3F8B8C
3D919045
BD68D620
3BA8062E
3D0FB92E
3D9B6DB7
3B52BE28
BD3BEEC6
BC991C06
3DA950E7
3D202572
3D849109
3D8747A1
BD7FBAE3
BD2F3103
BD35B655
BD48DD2C
3DA46E44
3D62D496
BB8DEA0E
3D1F49C2
BD01CB31
3D9F5138
BD1D30B5
BCE9F480
3D476B19
BD233963
3D28FDE6
3DB56F9F
BD62FC4F
BDB3535B
BCCCCCAD
3C76386C
3C832F2F
BB13E09D
3D3E7B3E
BD5781BA
BCA5A927
3CEF154C
3D371EA8
BD9FF6D2
3D9F9945
BC6B1329
3DA5D0E1
3C0DBBD5
3DDAD25D
3D995D59
BBF57248
BCB227D0
3D9E6B96
BD9F2D34
BD92D6EA
3D574E8B
BC724309
BDD25862
BB5E403D
BC6EA941
3D3672EE
BCE94990
BDB41A11
3CDBAB5D
3CAA159D
BD2E8C02
3DD1B238
BD97ADE1
3DB4DDEC
BD5DB0B8
3D66C618
3C571B65
3DB94778
3E0CCE07
3DCED914
BDA6953F
3DB68154
BCE5B028
BD601E28
BD144158
BD32AB76
3DCE9CAF
BD0CD32A
3DD8DFA8
BBD16AD7
BDD15F37
3DD6FDE7
BDDB5291
3D33F1F8
BD43B455
BD5E170A
3C40BB5C
3AB304A5
BB3F9658
3CBD4591
BDE1CE22
BD2D9877
BD2C9309
3DE6986F
BD2695E7
BC9D6749
BD0E9742
BC9EED46
3DEDAC3E
BDEA4EF4
3D3F9221
BC6888A0
BC84A3C4
BC02FD0B
BE011940
3D58AC9F
BC414E14
3DDF559D
3DEE0704
BC419DA4
3DC7C451
3D585E30
BD07C37E
BC537238
3DCD0B5C
BCD98913
BC84BD74
3D8FA29A
3CCE722E
3D1899ED
BD5A2398
3C8BBA6E
BCDF52E7
BC86FFD4
3D895626
3DB9B4A9
3D07EFCB
3B6D2DC0
BD9BC15B
3C699F8C
3D36E9D7
3CAD2FFF
3D2D1460
BC709D6C
3D8E6B37
3DCFCAD8
BC08DFC3
3C78C81E
3DD37A96
3D359FD2
BC48C866
3D680B11
3CD5655D
3D37F006
3D13CFD1
3D848F11
BD53902B
3DA2F093
BDAFFEF1
3D1C48C6
BD20CD4D
BD267DD1
BCCDBC7C
BDAB500F
3C3164F2
BCB7BECE
3D3797FD
3CB041C7
BD508373
BCA2067B
3CC8CD19
3CBA4409
3CC34651
BD1A922A
3DE4A2CB
BDF2E9AD
3B29480D
BC56D67B
3D0CF8E7
BDC8B357
3C9418C1
3D7CC0C9
3D683330
3C4988AA
BB7E974A
3DAADA51
3D8E94FA
BD8F956B
3D5388F9
3D804300
BD8610A7
3D45BDD7
BD429300
3D04F921
3AFBB03A
BD53A559
BD10A387
3DC576F1
3D0B2934
3D493662
3D3B7F90
BD4EC890
3D06289B
3A97122B
BD1CE4F3
BD4544A3
3D7C43C8
BD8B9B5B
3DA5B07A
3DA4F38E
BD5E3DA8
BD7247BB
BC3323CF
BD8CD66D
BCABE358
BD4D796D
BD2A5800
3D3BBA0D
3D209ABD
3C9202E2
BCFF4EF5
3D9F47CB
BCAAAC8C
BDA900DD
BDA7707D
3D906B5A
BC07DFE9
BD85A9A3
BC2C32E4
3D9F0314
BD8EC3FE
3D5EBC26
BD67626D
3DC90A0E
3D4F2CB6
3C6C72FB
3D570A20
3D83260C
BD2063C8
3C372F2C
3E1A1EC0
BD152A41
3D7E3B04
3DBBB19C
3CFCC25E
3D205DD9
BCF240EB
BDA6FB17
3D6C373B
BD82DB64
BDA8AA65
3C547D86
3D8D81E1
3D8C92DA
BD7EB890
BD5D7EE4
BCE32CC6
BD83E2A0
BD9DF164
BC18A203
3D6583AD
BD3442F8
3D4D3047
BC3D653B
3D8654E9
BD46654F
BC69F0BF
3D3FD84D
BDA05631
3D77073B
3BBB0B2E
3D117BE1
3DA9D6E8
BD043CC6
BCAF1AF6
3DBDFDEE
BD86EB7A
BCACC99D
3D960E6D
BD066C3E
BD7A8E51
3D3462F1
BD0FFF8F
3D82147E
3D49D0FF
3D90FB61
3DA75B42
BCD86608
3D0BA80F
BC8012E0
BC40B470
BDCCD5A6
3CD899BA
BD0F95AA
3D828F19
BD94DAD0
BD15B35B
BD78A43C
BD2DDB1A
3DB98295
BD93B7BD
3D810348
BC3CEAD7
3D9CBB57
3D2A9EF2
BD2600D3
3D90CADC
BD93ED87
BD5C17F4
BD488466
3D2DFC2F
BD2DBC18
3DB52395
BC683B12
BD5A483B
BCC3F67A
3DDF74CC
3D372F87
BDBAD93B
3C0CC779
BCC0876A
3D8F90EB
BDAE57C4
3D3E5D86
3D220B96
BC27CC82
BD0FF40C
BD432722
3CFBC259
BD74578E
BD61BBA2
BD95AD45
3D2E0653
3DAB1524
BB9CDCB0
3DA8EF22
BBC9590F
3D3C7574
BC9051D2
BD310A46
BB405875
BD333D11
3CACE43A
3D65F5BE
BC88BA6E
3CCA4980
BD5BFE26
3C9C872A
BDC583FC
3DD98674
BCD56A3A
3D51C293
3B2D4BFE
3DB1EA90
BBB5EF66
3D0FD3C5
BDFE17B2
3D2FB7A6
3C1D5E75
3DA129DC
3D72F0AE
3CFFA71A
3C8DA052
BDCAE23C
3DCDC058
3C6FBB7A
3D6064FD
BCA07109
3D9EE1FF
BDAA4D53
3B9D5464
3D3CB763
BD3B4CC2
3C60BACB
3D2AA8F9
BD9C603A
BD6B2E9A
3DA2AC61
3BE7C2C7
BD9D1B4C
3D89EB8F
BD072A81
3C4CC703
3D8D7B3A
3CD3C6EC
BC9D19C1
3D911E0D
BCC8AC92
BD4CC3AB
3DACFEC2
3CBC16B7
3BBB867E
BD69EA04
3D9AA0AD
BC8675F6
BCBADCB5
BC433C40
BD573E86
BD864EFB
3D82AD06
3D2EB740
3CC00360
BC2C0354
3C129BD9
3C465C50
3C40A0BA
3CC92070
3D3151C4
BC673559
3AC945DA
3DA379AF
3C9D13B7
3D962B35
3D2FCFC4
BDAD1FC7
BC4E496F
3D4C15AD
BCB8E910
BD35E082
3BA44A62
BD2FA5C8
3C0B6F1F
BD5042E3
3CD0893A
3D08F8E2
3D866F6A
3D367629
BCE2B217
3D8D2DB7
BC0489E8
BC6CCE95
3D11E385
3D7551EC
3C0D44CD
3D8ADC4E
BCB43343
3CF9DB43
BBB4FB5F
3DAEC4DF
BD5C9854
BD7BFCB0
BC9FD4F2
3D24FE29
BD32ACE1
3D2D5D6B
BCB68B2C
BD89B94C
3D713E89
3D931F2D
BD173C77
BCDCBDA1
BB024062
BCC1AC88
BBAAEBE7
3D22EC8C
3D15E54A
BD0E2991
BDA384D8
3CA45B9F
BD0D522E
BCECBF36
3CAFE4CA
3D7521CE
BD84C55B
3C4C9A8D
3D71F65A
BD956AB9
3CE6F30E
3D5822A9
3C36FC16
BD915347
BBD6EB1E
BC29F4FC
3D0B810B
BD8F6F1E
3D8B3896
BD492CF8
3D952170
BD9A2AAE
3D36F298
BC84E811
3D9D1A83
3D813B24
BB1E8338
3AFB1890
BD8430C2
BD9D3091
3CFBDAF8
3D2E126F
BD69331A
BC784E66
3D8E6B61
3D9D9A08
BDB39F10
BCEAD506
BD8A7F54
3C8E3212
BD07DE79
3D89E1B1
3CE09064
3C7AFF2F
3D99D7CB
3D58CA41
3C345303
3D99AFFB
BD4157E4
3C94407F
BD3D087F
BDA8052E
BB91E8B6
3CEBCD2E
BD9AABFC
BCCBFA3F
BD0BE742
3D06C973
3D2D1E66
3D558129
BD165C30
BD9D5DCD
BD3892BE
BD9B6C5C
3C97A6C0
BD6CABCD
3C15B8CF
BD1D3146
3BC66311
BD175EBC
3D429B96
3D302B29
3D9ABD8A
BB28CC12
BBF55268
3BA25A88
3D4CC2B9
BDAF03E9
BD3588D6
BD67F15E
3D96C241
3D69F62E
BD4C5693
3D99F434
3CD95F12
3C4DC301
BBC44783
3D706355
BD597B01
BD113699
BD245394
BD7CE744
3D83909F
BDB32C4E
BCB0FEB6
3D875F0B
BD281662
BC9C78FD
BCDD519A
BD60113D
BD5A3947
BC082DD7
3BB86A2A
3CA2315E
BD7D7C83
BD070390
BD2FC6B5
BAE061D5
BD1E737B
3D64685A
3CAD56AB
BC917D51
BD94DC19
3C003631
B9867981
3D5A33E3
3D6CACB1
BD382FBA
BC82AEF1
BD72481F
3DAF2749
BD80EB64
BC8DBA4D
BBD67E7C
3CC61A41
BD3902FC
3DCF7DFF
3CE32051
BD5E8F60
BDB770DF
BD065394
3D1C3890
3D64C4EE
3D9A2A71
3CFBC6F6
BCF12527
BC891726
BCF45CFF
BC7B98BD
3C1E33F3
BC8C0EA1
3D9FF3FC
3D2D7645
BD7834DD
3D0B2BE3
3BBD39B2
3DB1B3C3
3BF84083
3D10FB7E
BD40480F
3D674A8F
BD1C7435
3D4F4A1D
3D724E61
3D310192
3CA4DA3A
BD95B718
3D5DB0B3
BCB24F99
3BC2F5C9
3D249EFE
BDAFB43B
3D2C1681
3A15035D
3D24A98B
3DA40003
3D1CE8C1
BC870766
BD55117A
3CB2EE04
BD6CF447
3D3820A8
3D9A4EE3
3D5033F2
BDC21F83
BD6F9F0A
3D9D5311
3DAB4B77
3CA9CC2C
BD153498
BD8B346B
BD37BDAC
BCA53CC6
BDBC4717
BD713DDB
BD8A7607
3CE4DB61
3DA0BE8C
3CA71E92
BD95085F
3D082131
BDA5425C
3D66328A
BD4871E9
BC94BF70
3D716E85
BCF409B2
3B9F28E5
3C037EC5
BDBDC5BB
BB9A933F
BCE3FA3B
3BAF486D
3D972CBC
3D187A5D
BD85E0DA
3D947AF8
3CFE3F61
BC01CA70
BD9EC173
3DD598F7
BDC225B5
BC9FDAB1
BD1F5733
BD2E0B2B
BE0ED287
3D541F21
BCBD9B71
BD505B27
3C489012
3DBA20EE
BD79B124
3D8124BC
BD908896
3D1F6556
BDAC5D98
BDD569D4
BCA0C6B5
BD49C9A8
BC11A9B6
BDB7EC96
BD55E27D
BD53790C
BD932F20
BC979075
BBF70BD0
3D73DC81
BBE7E3FF
3BBFF563
3BE454BE
BA282A56
3D849C38
3D8B1E8F
BCF88D80
3D3AE465
3D47ED5A
BD12DBAA
BD627F31
3D959486
3D8994F4
BD5E0DFB
BB9626B3
3CBF254F
3CCE3E6C
BCF477D1
BD66FC1B
3C118BD9
BDB604F2
BD804C9B
BD40EE17
3DAE0B6D
3C813930
3D4634E3
BDA41268
BCD578BE
3C731058
BD83818A
3D8D78F5
3D20C895
BCD63424
BCAACDB4
3D3D2E49
3D69CFBA
3CC31157
3CF2769A
3D0E19D4
3DA0D218
BD5B23FB
3D3A33F3
3D089C46
3DB23BB8
BCC6B968
BD1B1C66
BDADB587
3D4C249E
3C992FCC
BCD6616B
3BD60DD4
3C27CAD5
BCFD380A
BD86640D
3DA59F73
BD5A806F
BCC78C9C
BD22CC81
BD2B2AC4
3D4C9BAF
3CC3F171
BD72FC49
3B466123
3B33CE4E
3D8C0851
BD5AD866
3C58A243
BD8767FD
3CC1C5D3
BCB7C772
3BAF97F3
BCF957F6
3D9642B8
BD4F0F34
3D81A489
3D019D1E
BDA18F70
BCA754F9
BD324AD9
3D3CA64C
3CA85452
3D86D4C1
3CE9C1F6
3CF7A78C
3C5D4825
BDA059FA
BD85AFAD
BC8D5325
3DAB8187
3D1512EA
3C8BF836
BC5C975B
BCB9829D
BD5DB66F
3D468C46
3B4DB04D
BAC73B68
BD9B2804
BD654FC0
3C66A688
3AF5EA27
3CD6C300
BDA19D77
3CA9865C
BDB64932
BCB6443A
3B022F9B
BD141D59
3D90680E
BD82E513
BC3C2A12
3D0774A1
BD93AF17
3C9A3DF4
3D95B6E0
BB2F56C5
BDB436F1
BD77E9BE
BC40FE58
3C8F053C
3C37B6C6
BCD2F1AF
3D4A593D
BD4C766B
BB3EA23D
3C6140C2
3C8186BE
BCAFA8F5
BCCCC60C
BDAADC18
3D793FCD
BD9163E6
BCACEEEC
BDC5F31F
3D2E417F
BD0A2741
3C06A393
BD722407
3C5306AD
BD4B30CE
BD831F5F
BDAB4316
BD398D68
3D611670
BD68B396
3D82FC82
3D5D3B4F
3CCA40D1
3D041078
3CB2D1BF
3CB3C74D
3CA79B0A
3DCD44AC
3D43829C
3D26B0DC
BD147451
3D1CAB57
BDC83FF8
BCBB187A
BBC0FCE0
BC9B087F
BCA0F91A
3C8E2F68
38590E24
3D012110
BD36E331
3D0E308A
3D5AFB9C
BC322E46
BD0A6FDB
BD495EC4
BCA43366
BB096EA9
BD393858
BD4468FE
3C5FF142
3D9F52A0
BD8EFCB8
B8132D9A
3DB45C3F
3D5269F5
BD263C2A
3B9643E4
BDCC7EB6
BD50FD81
3C722B2B
BD593901
3D32355F
BCDFAACB
BDAEFEA1
3D9FB516
3DA4AF17
3D8B0C2D
BDA2E3D8
3D410BA1
3D7A1451
3D36CF5A
BDA5041A
3DE63232
3BDBF839
3D23F2C9
BD288B6F
3D3E35BB
3D0988F0
3DABEB54
3D66D803
BD6A7A95
BD10A663
BB4DF744
3DD7DDEF
BCBC5AEF
3DD29278
399364A1
3D55338E
3B18B1BD
BCBC7B71
BCC27A6E
3A9221D6
3D5367F2
3DB2CBB3
BD09658F
3AFD768E
BC8BF145
BBE2EE8D
BC1393BB
BDA2C798
3D8D3E15
BC1DCD5B
BD68A593
3CC3E522
BD5B07B0
BCFC5E75
3C7006EE
BD16A6B8
3D65DC02
BD6BA27B
3DAA00F3
BD4A5737
BBE9B175
BCD2B9E7
3D40A2F8
3C85E00E
3D70B527
3DDF6015
3DBCAC0A
BC1AB89E
BC089A18
3C8889E2
BD23F1CA
BD3D3491
BCD44C4D
3D9E19CF
BDD7AACA
BC3E5672
3C3EB5C8
BD81A64F
BD633653
3C5B6907
3D895EC0
3C4E2BF2
3C9EF1C3
BD906273
3D7F9A54
3D175498
BD627429
BC854EAF
3CBE9257
3D9FD629
3D11DA86
3DA6DDA6
BD785633
3D645D85
BD5641BB
3D757644
3C63C7F1
3D6791D2
BD9B368E
BD16BF2C
3D088F7E
3C9BAA9B
3DA204FF
BC066F7B
3B4C4035
BD96C3F8
BD1A01A9
BBD41353
3B0D7823
BD1835E7
3D336F33
3D9E6250
BD612069
3D488568
BDB94512
BD5D402D
3C59AF3E
BCC49EB0
3D24E4DC
BBDB5795
BD949876
3DB07AFA
BBD66049
3D1F4F49
BD9C6CD6
BCE9C221
BD4216B3
3C7EE401
BD92BB54
3DA46AC2
3D2B3B4A
3CE55AE9
BD322DEA
3D3F0DE0
BCA10675
3B8F1861
3D672AFA
3C82BA2F
BD3D6B23
BC9EB99F
BD471AEA
BD33B699
3D92A59C
BD9CDDC3
3B114A6B
BDAA40A3
BD3BC28C
BD6D4A73
BD86970B
3C8B302A
3D5FA071
3D975DD0
BD9368E8
3D1EBB87
3D49EF17
3B2DCAA9
BD23B7F8
BDA8A9A3
BD9F7E9F
BD703CEC
BD52250E
3CDC84D6
BD32B0EA
BCBC8BDD
BC12EE5A
3CECAC96
3BAA55D4
BDB72309
3C81BFE4
BD0752FD
BD59F6BC
3DAC3B9F
BABB661D
3CD5A914
3B9A30AE
3D44D6A9
BD01F2CF
3D6CDF24
BC828BB1
BD0CEE53
BC57588C
BD699919
BD891D50
BD67AB02
3D96D87E
3D885A1B
3D85F051
3D647C8C
BD2C144E
3B758A30
3D4AB025
3D87DF21
3D19DBF2
BC587892
BC3CAEFD
BD9F43E3
3D8FFDD3
BD80039B
3D41DCD4
3D412B74
BC986105
3DABC886
3D9992D9
3D19DFE8
BD8B40F2
BD0A8F28
BD691941
BD9712F3
BCC80CDF
3C2485A6
3BF4F51F
3C4B8B19
BD3794B4
BD6ACBF1
3D61286C
3B9252A8
BCB01FB8
BD6EE21B
3D356F1B
3D80E6F6
BDA9AF60
BD96329C
BD22B394
BD983DCE
3D33DAFE
BD097F05
3D5B1C79
3D1FD812
3D716BB6
3D8DF79E
3D02D298
3CAE576C
3CD11693
3D586B8F
BD835C51
BC69C58C
3D18270E
BD866937
BD552983
3CD0CFF1
BD986209
BAC54FD6
BD989FF4
3D68F961
3D977025
3D70B400
BC8D6828
BA0513D1
3D5B1347
3D4836CE
BD46163A
BD353767
3D761DDC
3D997D01
BD0E94E1
BD860F2F
3C82F2F4
3D22D7F1
3C0C5726
BC1D7F2C
3C1036C4
3D53EED0
3D28F92B
3D0F7246
3D598359
3D6D5E68
3D81FBDD
BD9A71E4
BDAE509E
3D927BB4
3DBB7F58
BC27573D
3D90E232
3D38FEFD
BD70AAD0
BD9B6B75
3DF52486
3C8FA7DE
BD26FF66
3D505392
3C508B89
3DD4C50A
BD02B829
BCB8C79D
3A75430E
3DD058AB
3D9A0BE9
BD2E331C
3D832612
3B23EA00
BC2A8C66
3D9B8EDC
3C3CB39A
3CE3355F
3BBE893D
3D72B765
BB52FEEB
BD574DF5
BD75AB63
BD9E300F
3D54999D
BD40EE6A
3DB92035
3D23B039
BD44350E
3DBD4FDA
BD96CF0A
3DCCB0F4
BDD42905
BD07101A
3E017C6B
3D66F494
BD878942
BD4B5571
BB3AF762
BCC60B37
3D0CBDD9
3BD3064D
BD221076
BD1B770C
3B324FF4
3D7D07CE
BC926AE1
BD6A8728
BCD2B016
BD644125
3D3EF688
BD3F3CBC
3B17AB02
BB6685DB
3CDA76BF
3B019FA8
BB3BB954
BD7BB327
3D72087B
BD5A490A
3D6FF75C
3CF79EFE
BCA382C7
BD3B79D9
BD000544
3D083F5A
BD8C7CAE
3D4B2D1D
BD6CC481
3D0820AE
3D79B87E
BC0675DB
3DB4B9AF
BCFDD781
BCC473E3
BD4C0029
3D4CBC6C
3CBE3CB7
3DA1B571
BC111AF0
3CD53180
3D6B6F3A
BBD9BC9F
3D316C64
3D36E35F
3C9FC024
BDB46B91
BD938B36
3CBD74AB
3D277923
3CA02BA4
3D610A51
BCA79BE6
3D8145B1
BC1C9BAD
BD07C0AF
3D007873
3D9D0B08
3CF8AF94
BD88BB80
3D3B1DAB
BCD33923
BA8BDCEE
3CA1681A
BC469088
3B9C5DDA
BD430246
BD8A36FE
BD76ECF1
3D25592B
3C3D1BD5
BDAA8BA5
3D0C304F
3D67DF7D
38A5E27D
BD2B7F78
BCE7180D
BD8E5EB1
BDA8EF44
3A6CCCC7
BB89D4D6
BD5C32D9
BB75A70C
BC9F8DA4
BD43EDCB
3D2B1EF5
BAFE9D7F
BCAB8138
BB14E657
BD52273A
BB83E7EC
BBFC672F
BD5E57F5
BD831584
3BEA36AB
BD84A5BF
BD8A8F00
3D9D4273
BD83DB09
BC0E2410
BD89D26B
3D5BCBC3
BD87E193
BD2E332C
3C3073B0
BCB5DBAA
3D9C1C47
3D2A3E14
BCC205F4
3D735921
BD59D1AE
BD1A363A
BCB34349
3C987689
BC9C99FA
BDA6E862
BC01D131
BD66CE63
3C90CA4D
BD8168E3
3BE9DC12
BD3E668D
BC42767D
BCE2BFC9
3D003260
BC4FFDFA
3CD04395
BD63160D
3D9891D7
3CD54918
BD150B04
BD698120
3D438AB4
3D2760A2
3D0B87E6
3D72878F
BC9B8410
3D6689CF
BD19F894
3D25B587
BCCDA408
BD97E073
3DB626F7
BD7203B9
BD574BAE
3D4A5CEB
BD479568
3D0D6813
3C814855
3D91754B
3D8F0EBE
BD32E9D5
BC73B77D
3D9117CB
BCF091D9
BDA1AE4D
3D8B0B7A
BB40A21C
3D2C1B26
BD7644F9
BD210A84
BC57FCAC
BD9F764E
BCEC73C7
3C2FA930
BD23A3A6
BD3BC5E4
BCCDC058
3D938C0D
3C13EDBE
BD396658
BDA58DEB
BDA54E59
BD981D7A
BCACEFF8
BD1A30AE
BD721333
3C506015
BDB7D4A8
BCBD2092
BD959038
BD9C9F84
3D92CE33
3D0FE700
BD5C8089
3D1F2933
3D42A592
BC29B9A2
3AA3014C
3D9C3E2E
BC089E7F
3D058164
3D8F9000
BD81A458
BCEA578D
3D902925
BC8E5C4F
3C79729D
BD67825D
BDAE70D4
3D3860E7
3D2B7019
3D900F56
3D8421D8
BCBBBDB1
3D773E35
BCB47F1E
3CB3DB6A
BD832B80
3D9BADD2
BD80F787
BDBABBA2
BD2A38A1
BD8FB26C
BDA7E063
3D3CEC7D
BD182C1C
3D8CF4BE
3D6B7CA8
3C626570
3CF91BF0
BD54CD77
394509B5
3D2816B5
BD475F17
3C0BB0C3
3BBDC8A3
BDA612D1
3D89A029
BD6CAF33
3D85B795
3D12BD17
BD89AF97
3D97F460
BD81D585
BD6F01A0
3DA59D89
3D8AB745
3D89A357
3DB5E5A3
BCEEA616
3CD84480
3C8D81C9
BC2E15D2
3C470644
3C83D217
3D464945
3CF6903A
BC3C9E61
3ACD81FE
BD625E19
BD822058
BCAB3085
BCFEE990
BD70DAAC
3D91C481
BBAD86F7
BD2C51C5
BDA67033
BCD8A223
3D824049
BD71A3B1
BCAFEB75
BC4E05FD
BC791B75
3D68CBBE
BCC12E2E
3C1E5D83
BD5C1BCA
BD0B6FD5
3D73781F
BDB35D4C
BD46FE34
3D8495EC
3E0510B4
BD7C6DA2
3C8C4645
BDA21360
BC8A28C3
BC9B2479
BCCFD92C
3E1143D0
BDBA3139
3D9CF3E9
BCDE4291
BD2048A0
BD0CA1BF
3DA25989
3D51C43B
3BD27EE8
3A5D0CE1
3CE4FC6E
BD91207F
BD5E27EC
BDF87BA7
BD4B33C8
BD4D208D
3D29A812
3C02B801
BB966E01
3D83B5BE
BC98DEBE
BD16802A
BE160F9B
3BE199CE
BDA0B946
3DD4E13D
3C90D611
3D0C8BAA
3D7D009A
BDD4775B
3DF4D52E
BCAD8FF1
3D0A80E8
BD5C203F
BC140BE6
BE0F0144
3D06B55E
BC33346B
3D8540C4
BD8B24A7
BD84CB3B
3D77F837
3DAA1D8C
BD4B214C
3DBEE000
3D9CA065
3CAD3268
BCD1A91A
BD4FA2D3
BBD83A3E
BDB33C0A
BD463ED1
3D6CEDFD
BCF45B21
3D94CD17
3D79B6C0
3CBE96E4
3DC04331
3C6C9A52
3D597ADE
BD56D5AA
BD7A1E92
BD98A88E
3DD5E423
BBF0ED93
BD879BE3
BD30C014
3D671C7F
3CABF765
3D95E09B
BCC0BE06
BD36C38E
3DBB276D
3CCAC66D
3DB76E61
BC1F93EF
BD05BD03
3C055F90
3D3AA736
B905AED6
3DC76039
3CE210C7
3D9D050E
3D1BF2B0
3DC2DF60
3C351EDB
BC3760F5
3DB041D0
BD440D0B
BD0EDBC6
3A49BE50
BD8FF6FF
3C0A8676
3CD4EAAE
3C8A0D2F
3D3F12CD
BD2AE1A6
BDC63C4F
BD33AD67
BCCB63C1
3DA551DB
3D88F812
BDAC2D71
BD4433D4
3D2F50CB
3C2425E5
3D5FF002
3D4D35E9
3D1B8816
BBDC0CC6
BA0309B5
BC4EA971
BDB92BF1
BCC90D95
BCA913EB
3C456809
BD7E71F3
3D302133
3D9C8840
BCF55867
BD15ABE1
BD7376C8
BD35C386
BC4CB357
BDA03CF5
3D189DC9
3DB6D02B
3DA3D3AD
BC598CC4
BC37AEE3
BB65072B
3D8852F4
3C084D77
3D995325
BD5DE6F9
3D3B262C
BDA3C71D
3C944343
BD969C8F
BDAF4BEE
BD875339
3D74DF33
BD9D7D50
BCE6D8C7
BD85F271
3C7ECB78
BD18DC37
BB55F616
BBDAF732
BC574373
3D9E26BC
BD8263E8
3C00DFB9
BD821DD1
BD7C2D48
BC9EB075
3CE2AA75
3DB4F06D
BD45AFF8
3C646E54
BD974C76
3D589974
BD3043F3
3CFB3D2D
3D3656DF
3D0E9772
3C8CE8B7
3D15FD2A
BDA18380
3B583083
BD5ABF79
BCF9861E
BD76D5AF
BCECCDFF
3DA78296
BD557F03
BC2E7CA0
3B9EC2B9
BD53A414
3C8F9B3E
BD82E336
BCE08201
BA3D4EAB
BD00F632
3D834B50
3D976B80
3D854897
3D8349FA
3D579411
BD0FAB59
BD456149
3CC3B160
BD90212C
3D8D35D1
3C2695F7
BD7DC5E6
3C5E55B6
3D2EAC1B
BD049380
BC24492B
BD09BC74
BD9AE8CC
BB9FB8D8
BD71DF51
3D78EF55
BD3E2575
3D0A19D7
3D80FC53
BD44B091
3DBCFA96
3D014A8E
BD84C04E
3C9C7A29
BD126B0A
BD75A37B
BCA569ED
BD3A2F94
3CF841DB
BD327C39
BD2C0C5B
BD92EEEB
BCC9086D
3D9A8146
BC8B7940
BB7B7D8F
3CCFDA83
BD9E01B1
3C79BA16
BD04D8A7
3CE6EB82
BD32CCC4
3D3B079B
BCA5F87D
3CFD53C8
BD47AF06
BD2CC083
BD57FFC1
BDB1F538
3CA9D206
3DA73EE1
BD0DD3FB
3DB1F3AF
3D1F8DD2
3D328D30
3D849C3E
39A43FBB
BD670DE4
3D85F0A6
BCA36001
3D596B33
3D74EACB
3DAD2004
BBD92E2F
BD5D83DA
BCEC4508
3DBBCBCD
BCC25331
3CA3AC88
3BD03E87
3B66FDD0
3D241574
BD97B8CB
BB57E1A9
3CF27BC8
3DC9DD9E
BCA2013C
3B852E68
3CD569BA
3C592CE2
BC7D9B36
BD72533F
BD1B8069
3D9EA204
BD8383C4
BCC88B4A
3DA552C5
3C9E6A79
BC9066D5
3C20CABB
3D14C7DE
BD51F307
3C3A63FF
BD40C4FC
3D24A6D3
BC9AEEAE
3C0A41B8
BBA009E1
3D44A2BA
3D3FE14F
3D87A773
BD7DD1D5
3D5D6211
3D12DF63
3D934A49
BCA9FF02
BD680786
BDA1D78A
3CEEC1FA
BD374C90
BCA81BBD
3D4F5B9B
BC0FE840
BD01A755
3CC159F8
3D876A4F
BA310D54
3CDDCDDC
3D77EB71
BD71D67F
3D8FDC7C
BD520BA3
BD087E1B
BD935777
3B871634
BD20B755
3C1B5CD3
BD5A758D
3D5EE8CC
BC988933
3DADE211
BD818875
3D709D97
3D6343AC
BD632A7F
3DAFA21C
3D898DD7
3D55DB9F
38BBF7BD
3DC61CCA
3D233316
BD15060F
3D34D5A5
BD02ED32
BDC353CC
BD69479F
BD3136B7
BCCC0DE5
3DA40242
BCE095DD
BD9C6D81
BD8FE4BF
3DE6067D
3C634FD1
BD5D64FB
BD08F7C9
BD369236
BD887856
3CAC7B18
BD30EAEF
BAF80103
3D044A85
BBC07261
3D5E3494
BD36DF75
BD4AFBDD
BC135649
3BB96F4D
3C343F17
BB794B05
38B561F7
3D719945
3DA6AAB6
BC84C013
3D470756
BC148218
BD97B0AD
BD5BB4E7
BD11C369
3D1CD152
3D287AD3
3D4CBEF0
3C9AECF1
BD76F3E8
BDC4676F
BCCEA839
BD5A7180
3D0FA415
3CAC4D61
3C2104E8
3D93AE2B
3D730690
3DA263B7
B6C4F6EB
BC1228D7
3D988AC6
3C39D229
BDA02E8D
BC7061A7
BBF7DC30
BC2E70EC
BD7C35DC
BD7A33B8
3D9D9711
3D9D4BD7
BCABE39E
3D3BFA37
BC83B8CD
BC132C6D
BCFCE716
BBF552BD
BD0A6A7D
3D0FF774
BD553B94
BC9124C6
3C52A4E9
3AF3511B
3C0B7FC6
BCF2CDD8
3D7F5CB2
3AFF6322
3D31151B
3DA61C96
BC0C5A16
BC03FFEA
3D3EE1A5
BA739B99
3DA0162D
3B4811A7
BD4CB697
BD906B2E
3CD1D570
BD4A3771
BDA1D7D0
BD7901FA
BD1B6F88
3D2F8333
3C82E4DC
3D2BB08D
3D94C4C1
3CDAC792
3D553C04
BD82EFF4
BCC59EDB
3CA9281D
BD525507
BBA11C85
3D8FBE71
BD290042
3D06A81D
BCC3EB87
3CF45949
3D099580
3D5014E6
3D2522F5
BD53BA4A
BD55D13D
BD97765F
3D7AE55F
3D91097A
BAE55D92
3D06B833
BD0FC0C0
3D83D97D
3D93B724
BD14536C
BC8E6AFD
BD2FE919
3DC67306
BB9641A0
3CC090DA
3DB6F617
3D50F850
3CD529E3
3D26BCC5
3DBBD2AB
BD35140C
BC1025FD
BCFFB5A3
3C365069
3DB3A1E5
BD49DD5C
3D1C9750
BD89C0D5
3CB7535E
3BEE7CE0
3D5956B6
3DC1564C
BD6F3CC9
3C24522F
BDC61E68
3D6EE3C9
3CBD7AA5
3CFDC96A
BD26C9D9
BD8116FB
BD648652
BDC874E3
BDA0A842
BC379C4E
3D7A8B31
3D989823
3CFA6526
BC0DD6A3
BA845E9F
BC12B610
3C58178E
3D693622
BD8C2E3D
BD199E62
BC8150A8
3D2E06D4
3BEF4964
3CB4065D
BD9E9EFB
3C6947A2
3D1C5637
3B18E86F
BCD0F37D
BD154851
3CEBB627
3C2D544C
3C88C84B
3DA341D5
3BFC4EF0
3D8FE39C
3D7D5FF2
3D4583FE
BD863B2F
3C4890F3
BD6366AA
BC885884
BD444B6F
B9E09831
3D42E187
BD31ED18
BD8BBF9F
3D47A990
BD0367B4
BB86B4BB
3C8A92C6
BCD30220
3D6AB591
3CF77BCD
3D988AFE
3D5B5902
BCBFF37B
BD495081
3C6FF65D
3D8A805A
BDA2EEB6
3D39C7AD
3D3F7EB6
BD4AECC0
BDADB5D2
3D978107
3D452551
B9A3E87D
3D12AA11
BD4A571C
3C5E9C8E
BC39F8F5
3CBCAC8E
3CC5C3BF
BCC5E6DA
3D88FF14
BD010175
3A115075
BC6D616D
BD29C94D
BA82C79B
BB4D072F
BD4C7D47
BD2742E5
BD3FDE6A
3D34BF45
BDA169E8
BD1A4243
BD3A3AB1
3CF56FDF
BD8DC3EE
3D9F8412
BC41939E
BD9F1FEE
3D2376ED
3D3C9034
3D80D32A
BD6808CB
BD81C43E
BD29A7C7
BD11CBD2
BC475DD8
BD321754
3CC0A0C5
3CEC533A
3D831648
3D154BFD
398D6FEB
3CEB38F9
3C6CEC88
BD8E7AD9
3D370730
BD3A0532
BCBCF0B1
3AE0D5EE
3C84660B
3C68ACFD
BD9583B3
BC58D5CF
BD6CEBEF
3D0BBDF1
3D2E3228
3DB22CD3
BCFF6C2C
3C61F1F8
BC80C2F9
BD24FFBF
3BE092E8
3D61D3B8
BD2392BC
3D0234A3
BDA61FE3
3D3625A9
3CD41642
BCE917BC
BA04AA74
3D9B0507
3DA5F484
BD86F015
3CA9000F
3C950CAD
3C1D29FD
BD98EFE3
3D87DB2D
3D7DBE4F
3D624971
3C744F68
BC136293
3D97A097
3B5DB1F7
3D06EC56
BD979CFC
3D6B0295
3DEBE1C2
3DB88574
3D02B82E
3D5C5CCD
BD5B7B64
3D2F8041
BD209905
BCD4B996
3D61A666
BCF66877
BD95BBEC
BCE2D0E5
3E066957
BD1F3418
BCDE3E09
BD0AEAD5
BCA55AAD
BD94C5AB
3D6C085C
BD81F3D4
3D6D0A1F
BCABBE8A
3CA0D0F0
BCAE6EEE
3C03EDA0
3D283DF2
BC74C0F2
BCA58048
3D928245
3D4D58A1
BDC155B8
3DB24847
3CFEC614
3C446037
BA88529F
BC4E91B3
3DCE1C2F
BB6AA3CD
3C6D1770
BD62F027
BC96F372
3B2FF5A7
BD32DAFE
BD08A2D4
3DBEA706
3E083F21
BD0946EE
3C023C5B
3D717830
3DBF72DF
3D8FEF45
3C9EA6DA
3D8DF8C5
3DA46165
BDA588C1
3D3F6911
BE1549BB
3C80FC44
BD36575A
3DCEE6B7
3DAE5736
BE0BF604
3BA4300B
3B17CEE9
3D6DDA7E
BD11259F
3D7C441C
BBFDE386
3C5F29F2
3D0B2233
3D4BF884
3DA30636
3DBF47BA
3CFBB96F
3C9BF26A
BC705F2E
3CD687DC
3D0ECF28
BD11631A
3D6FBEE8
3CCE297E
3D88C22A
3D4D36D5
3AC6C44A
BC4BA032
BCDBE401
BD5F61D8
3C7B67F6
3D8A1DBB
BD241E6D
3DA8B8C6
BAFAA97F
3D1AB088
BCD613AE
3CFF16A1
3D835163
3B418F82
BCDB6BAC
3BAF24DC
BBE55FD6
3DBD9BC9
BDFC070F
3CF59ABC
BD8BFAC7
3D448444
3D2066B0
BC20CC1E
3C1B0661
3D7000E4
BD27D615
3D68199D
BDBDA5C9
3CA43000
BD34A8AF
BB9F2E6E
3CD805D0
3D3F75AC
3D47250D
BCE446A7
3D083393
3CC393FE
3D74036D
BDD2CFD5
3D64E007
3D74B4B8
BD93FC7D
3C9A125B
BD5A3F94
BD679F9F
3D5243C5
BD4349B4
BCEB0D2F
3C81040C
3D8C36DB
BD919EAE
BD43BE56
3BFDA821
3C423B23
BCFADAE2
BD32B2B8
BCDECC54
3DC49057
3D551D99
BD1BE6C3
3D96537F
BD1B4C24
BD7F3126
3D8F28E9
BCF99FEF
3D05CFF6
BC55BAF3
3DAB85D7
BD61EA46
BD170522
3D0B0351
3BC2C6E5
3D9C2F5D
BD46743E
3CBEFBB9
BD6A62AD
3CFA7B87
3C151B3A
BB7FEADC
3D8734B6
3D1A7C50
BD4F7D08
BD1A2B4D
3D8C589B
BD923F12
3C97137D
3D10DD83
BDB6E5C1
3C88720A
BD355D24
3D8119B5
3D5CD9AB
BD5E5AC4
3DA310BA
3DA2F564
BD6BCF7F
BC7BDF8A
BD347408
BDB63E54
3CA5970E
3D925037
3D9DBC1C
3D837B72
3CA986A2
3CDF4CF2
BD02E0F3
3DAA9587
3D62C306
BD425B24
3CF2B361
BD58B505
BC7505D1
BD92514A
BD8A6F1A
BD6A731B
BD8301F9
BC5746EE
3DB58B2D
3D57F53F
3D2AFA9D
3C693DB1
BC9CAD6B
3B542BBC
3D2A7E6E
BD838F1C
BC839CD8
3D501E05
BD481CBC
3BC5F659
BD610FF0
3CD1D91B
3BB07B5D
3D6819A2
3BD5E38C
3C10A0A2
BD297827
BC6DB255
3D67D689
BBB9BD3B
BD914888
BB3E3B0F
BD3DA8B0
3C87DC98
BD8864A6
BCCB5C9A
3CF9C411
BC65E790
3DC145DA
BD197CE1
3B8E06A9
3D97DB65
3C325471
BCF2D1FA
3D857E56
BD382E98
3C552581
BD01CFDC
3D7F7152
BCD54C98
3C4601CD
BD366885
BD8E9F1B
BD686C28
3DAC8E91
BD1BEF65
3D66D9EC
BBAE7447
BCEED5F1
BD9EBC5D
3D8B7177
BDB2791F
3CA2BFC9
BD58E39C
3CACFA1F
3C170DC3
BC259CDD
3D6D87A8
3C58224B
BCBE8450
3DF6F767
3D4D7165
BD96002B
3D618FAD
BD39B9ED
BBF5C717
BCC83BB9
3D0EACFC
3DB848EF
3DDAF9F4
BD7671A4
3DBC6A26
BC167B6D
BD9D1C7A
BCE42A9D
3D8EC9E8
3DA5D252
3D7A4DCC
3CF8B6E0
3C9B529C
3D6F7A79
3CB6E1BE
3CD7F19E
BDC44ED6
3DCA8CCF
BD039FED
BD42354C
BD184556
3CCBEF27
3D58BB1D
BDCD7E67
BC4B1359
3D18307B
3C8761DF
3D4A3DF7
3D131FCD
3B7EF741
3D3BBB70
3D9A48CA
BD7A3937
BCC1A699
BDB31163
3D106957
3D57652C
BD9C0FF8
3CA0D984
BD627D71
3D72633F
BD2ABB7B
BDB6921D
3C3E5444
BD6001EB
BD3006BB
3D45EE1E
BDF3EE20
3CBD8064
BD4C6CE6
3D9F35FB
BD808475
3AF488D3
BC5F225A
BD89A131
BD9284EF
BCA742CA
3D8966BA
3D6E36A7
BAC429E6
BDA70CF3
3CCE42C9
3D7D0AC0
BCD9202D
BD30B3DF
3D8CF024
BBAEF246
3CF4C950
3D232587
BD1C3576
3D1C8369
BCE834F3
BDA8A394
3B91F9D3
3D045D1F
BD954CF8
3D94B8C3
BD591E64
3D1BC2D4
BC8A6B49
3D5218A1
3C0D9824
3C1DD1AD
BD2A439B
BC247C61
BDA4874C
BD439002
3D555A2D
B7D51216
BD867CA4
3D3EC23D
BDA95DBA
BD926C34
BCB08345
BC0B3492
3D4D7843
BD4381F5
BD8B297D
3D18B805
BDA99255
3D471EEE
3D88FC60
3D43E06F
3D4FD64A
BD9A6DF9
3CDB7A55
BD4A99FD
BCEF18F2
3D64113A
3DAAD3FF
3D50B626
3D941B8E
3CC5D242
BCC760C7
BCDA531D
3D0B5373
BC38CA57
3CCD9D47
BD4E362C
BDA5CE90
BCA393D4
BD1E4B17
3D464905
BD444793
BD5B238D
BD0F511E
BA4E8A67
BCAC068E
3D480B9A
BD7DEFE5
3D7F8A21
BCBAA1F8
BD5EEFAF
BC85D079
3D528492
BDA409A4
3D38B9E6
BD03F543
3D1FADF6
BD8DD859
3D8E6774
BCA0AE4B
BD915589
3D751901
3D29FEDA
3D0B0905
BD133960
BC79B853
3D806C26
3CBE7CE3
BD22169B
3C8C5B1D
BD83CDF7
3C851355
3D2F8C1A
3D030668
BD753DFD
BD197359
3D5B5C47
3D806583
3D683360
BD6358A8
3CCD64F3
BD6C6EA9
BC99DA8C
3D8A5235
3C920E15
BD9313CA
3D3419E3
3D7F8509
3D74BD29
BD439714
3CE7EDC5
BD1DAB4C
BD6B4D40
BCCAA5F6
3D007E38
3C57D782
BDA710E7
BD138EE1
BD1F6937
3C0BCB25
3CD2886E
BD4F485D
BD39E6F7
3D4AF595
BCBFC0CB
BD251990
3AD9A21D
BD558230
3CCF9C30
3D3EDD99
3D0C27C1
BD098B19
BCF0A986
BC538DE7
BCD01CAE
BD3448D2
3D74C83C
3D5B2845
BD1D826F
3C89542C
3C348D1B
BD145C50
BD1263FB
BD8F296F
3B1370E1
3CD48426
39A6DACB
3CEBE0DF
BC2D23A5
BD945A9E
BD51883B
3D242764
3D0F4684
BC663AF2
BCECEA2E
3D118FF5
BCFB91FC
BCCF3A5B
3D80E0A8
3D355926
BD9030CD
3D75599C
BD8A14AB
3D9A6529
BD22AAE8
3CD443CF
3ACC4843
BDA37A6D
BD7E55D4
3C5B02DB
3D99FC9A
3D54CEEF
BD4099E9
BD40F8DE
3D52601F
3DA6A311
3D24CE0B
BD84B37E
BB7553AA
3D5BA220
3B8A009F
3C0895BB
3D059AC2
BD63BEA6
3D9869F5
BDA73319
3B9F7AF0
BD304527
3DC6741A
BCF3C3B2
BD7940D4
3B734F18
3DD50186
BD4344AE
BAB29E4D
BD2A822F
3D8F4EF8
BD29EE08
3D2D0638
BB094539
3CE92060
BD527030
BD99C176
3D948897
BC47D8D2
3CECFDEA
3D009EF4
3DA85B4A
BC2992F6
3DA0BE52
BDB47F7E
3DBF134B
BCAB008A
3D0744E6
3D0535D2
3C5273C0
3D0DD72E
BD9D8520
3B3573C0
3C4EAA52
BD1BA771
BD8447C0
3D86AF96
BDB38F03
3BBBF1C9
BD3462C3
BD07BBDC
BDD933B2
3C9EA2DE
BCDBA2B9
3D32E7F7
3D36814E
3DBE265A
3D7EF3D1
3CDE2D82
BD148259
BDD8C7FD
3CFAF0A2
3C11D098
3D7D38A8
BCC3BA09
BD57E646
BD925F38
3C3AF5F5
BB626590
BC6E9C35
3D171D0A
3DCEE354
3D7AEA72
BD953F7D
3C807063
3DABA494
3D7A6061
3C4EC3BD
BD37CC60
3C7CD3FC
BD1ECE34
3D88E69E
3D39C701
3D3884FA
BB93D991
3D9C9C7A
BD0C0125
BD7DD261
3C9F9FF9
BD868F3F
BD64E7D1
3D9EC858
BD4EC68D
BCFFE050
BCBCAFBE
3E0AA09A
BD223836
3DAC964A
BDBE1FC6
3D539AC7
BDB1A20B
3D89CA93
BD0CC662
BD8A3F69
3BB18BE9
BC605184
BCC24ED5
BD2A292C
BD20F690
3D3BEBD1
BCD54252
BD81015B
3D1A726A
3D3AEFAB
3C44501C
BD493BAB
BC833DF3
3D23E113
3D924B3C
BB2D9EDF
BCDFA003
3C46C953
3B09AF16
3D88D538
BC4BAD3D
BD645D52
BC61A04E
3D468179
3D7CF854
BDCF2113
3DC53ED6
BD009C45
3D1C016E
3CB6165D
3D65DAC0
BC5B582B
BDA72F73
BDB09539
3D3B8473
3CCD5BDE
BD3C16A2
BDA14C13
3D734C5E
3C7757A5
3D826749
3D92B2D8
3DA51124
3CB8E8A4
BC4B512C
BD4796D0
3D14EAC1
BD03E067
BCE3AA49
3B8CF75F
BD9E96FA
BCCA40E1
3C95A869
BD59274B
BCCF0506
BD44EA5D
3D57AD63
3DB3FD3D
3D881D15
BD9084C7
BC7CF615
3D1FBBE8
3CBE3449
BD8BCB6F
BD79DE9E
3D806DFB
3DB51472
3CEADADA
3CB10BDC
BD740888
3C6FE6E3
BD692E82
BD8A6700
BC5F8226
BCFF6CC2
BB927EF3
3BDA82EE
BD8E2210
BD53D5E6
3D20354D
3D647B75
BCF70EFB
BD0DB2F6
3D96C5DA
BD035BAD
BD8EDB3E
3D27C620
3D2DF9BB
BD6CDF06
3D57B015
BCC0D208
BD76CA8D
BCA2B379
BBFA89C9
BD1A461F
3D4CAC69
BCB3DA2D
3C998AE6
3D7B4B40
3C155796
3D9690EA
BCBD46F3
3D33FDF9
BDB70191
BD4A0CD9
BD9AD1DA
3DF6E7F0
BD01BAB0
BCAC0272
3B32CF76
BC8AACB7
3CF62353
BC824346
3C96274F
3CDEDECE
BC314F99
3CCDF195
3CF7EB69
BC792C92
BCD73404
3D1631CB
3E231CBD
BCD7B4E3
3D27EC5B
BDBFF7A3
3D950D62
BD6D79B3
3D9EC7D5
3C9BB2C9
3D0FEBBB
3D8E6C62
BD058223
BCDE9A0F
BDB3A90E
3D4A7CF9
BD99874F
3DBB0DE3
3D8A4B7F
3D463E63
BCC174E0
BD733CD1
BC51075A
3C87D3D4
BB8949AB
3CFEAB26
3C984282
BDA4B7FE
3D915154
BD78AA79
BC98F707
BD70AD04
3C9818DB
3CC1B694
BABA458C
3D6B29EA
3D8E2072
BCA37CAC
3C446A53
BD40E38D
BD7EFADD
3D175C88
3C8DF9F3
BE011663
3D7BF1CE
3DB8A14F
BC99FEDF
3CE1385A
3D474ECC
3DA7E337
BCBC10AD
3C63D70A
BD636CA4
BD8DEC2E
3DD3C0B1
3C4CD0C9
3D4F222F
BD8E53B8
BC1E890D
BC05C98E
3DB5F74A
3D419244
3CECC9A2
BD61DC6C
3D724595
3D14AC70
3D058055
BD8DBE78
3D117383
3AE32782
BCEDFFC8
3D7DCCDD
BD1DA51A
3D980BDF
3C645722
3DA9175A
3CB0EFBC
3D92ED43
BDB4804A
3D366D37
BD2DE21E
BD1DE7F5
3A287986
3D43E5AE
3A3B7790
BCCD1D1F
BD635DBE
3D44F42B
BD8AD47E
3D273932
BC353EDC
BD063990
3D25A81D
3BF80EDA
3D36735A
3D256EA4
BD836637
BD8466A6
3D4DE72C
BC34F413
3CB0292D
3CD53973
3D432C85
3C926771
3D8FE2F0
BD21E3EB
BD7202DF
BDA0C1C8
3DEF5341
3C15B9F1
BD024321
BDA4CEC5
BDAD502D
3D9CC52B
BD6FCEC5
3D036964
3C5B8A1F
BCFD5F16
3CDF05CF
3C72D311
3D149229
3D5548AF
BDB99A0A
BD442C55
BDC56261
3DD5BCF9
3D87A8EE
3D4E91E9
3CCD1D95
BBCD8CA6
3DC7A94C
BD6A7DF8
3DC55B57
BD888B57
3D9BAD46
BD853E38
3D189C09
BA5694A2
3BC0EC03
BCE6B551
BDA1D639
3D8B7CBF
3DA5656C
3D077CF2
BDD802F6
BC9188E9
38AFEE1A
BC113DD5
3CBE5AF4
BD4FECDD
3D82E4A8
3B16886D
BADB69C9
BD211C72
BD870542
3C418607
3D90BF21
3D338FF2
3CA164CA
BC40CF73
3D23555A
3DA8158A
BD9D3B61
BD368A76
BD4A4C24
3D8FA40D
3D0D45A3
BD92E2FC
3D48601E
BD8A7356
3D8DC65F
BDBAC9B3
3D86BC0A
3D67C72F
BCA01B2E
BD15B48D
3C257961
BB1073AB
BCBE9AFB
3D03EC69
3C6E5BA8
BD2E5ABF
BC995308
3DB59FF1
3D7914B9
3DBBA506
3D63BC88
3C3C5B70
3CCBDB86
3CF47CAF
BD98AE70
3D98CB0C
3D43915A
BCB3CC70
3CFF6BC6
3D68B424
BC120530
BD2208D7
BCE0180E
BD8DFFC5
BD0E7F42
3DB4B6B5
3D57CA87
3D89522E
BD45CB3B
BD58B307
BD17A67A
BDA0E045
3C28310C
BB7CA329
3DCEF181
3BA56656
BD0D5B73
BD1A2D02
3CAE4B22
BB5CA384
3D43C0F8
3D0C61A8
BD3258A5
BD0E2606
BD4F2CAC
BD51C588
3DA3BFC8
BDABA1FE
3D3BC6E6
BD813290
3D00D293
BD8A614A
BD967D1F
3CBF8F22
BB27866C
BD82FB70
3CC98ECF
3D2A9306
BBC9BEBB
BD7BE6F9
BACE957A
3CA251F5
3CB2E672
3D9ED52B
BD595028
3DA50F5A
BD7D008C
BC142E35
3CCB4060
BC53DC0B
BB429D49
BCCAC5EC
BD94FC6A
3C8907F1
3D7B9331
3D16D8E2
BD95A829
3D51D0E3
BDA7EB46
BD5A6526
BD7B7285
3C7B0E74
BD832565
BCCC2ED2
BD4FF2DA
3D2170D3
BC1B9609
3D5DF0A1
3D4E2C3B
3D8AA324
3D2BFB81
BC495076
3DA162CF
3DB068E2
3CF403DE
BC2B754F
BCD69CD0
BD6D67BD
BC6EC51A
BC5640FF
BC0F4416
BD997954
BBFA55DD
BD9E4E4E
BDB7DFDA
3DA94D06
BCCAC8BC
3D81AE5F
3D9F3ADF
3D7D472E
3CF12D2F
3CEEF1D0
BB74AB63
BD337385
3D0901F4
3D98B889
3B46D943
BD77C11D
3D20C9B4
BD490C61
BD8EC62B
3CC59820
BDA0EF78
BD4D4957
3CCD5147
3D949CB5
BD0A5754
3C71133E
3BFE2BD5
3D981940
BB98230C
BD78123D
BAE9F801
3D8B06CB
3D754128
3D94B093
BD3A741A
BCF1C616
BD4E989F
3C2B1913
3C71B09C
3D2CFF3A
BCD89C09
BDABA29B
3A696F1A
3D36E608
BD628510
3D9DD4D4
BDA77B1A
3D5BF14D
3D77B907
BD2668CA
BCC6CCF9
3CFCBE11
BCD80032
BDA9ACC5
BCE45656
BD925863
BCAD8905
BD670692
BD7D02BD
3CF9A1DD
BD19287B
BD1B09D4
3D8B3B1F
3AAD86B6
BBDC9F7E
BD61ABDC
BD153953
BCDCE00B
3C845B39
3CEBE698
3D4E8571
3D97B413
3D95BE70
BC878B34
3DB2DB67
3D8EBD69
BD66A40C
3D2532BA
3D890185
BCF8398D
3DE1169D
3DD28C6D
BD3A14CF
3D81DA39
BCB0B519
3CD13FE9
3DD6AC7A
BBAEF64D
BD96D59A
BD797717
BD7FB0C8
BD2A95B8
BCC19A9A
3E044EB4
3C2E30B5
BD33263D
BD60C283
3D970D36
BDB55435
BC830FCA
BDA5DB51
BD650619
3BD2DCDC
BCE9FD09
3B915BB3
3DA5B538
3DA8AF8D
3D50C25B
BC0D31E2
3AB088C9
38DD2FC6
BD8C7223
3DAC3B33
3C4A8A93
3D64714C
BD063366
BCD58B2D
BC4EB301
BD1574E4
BC848C26
BD0EDC21
3D277D55
3D84277D
BD122D9F
3D85D626
BDA79B60
BCFA0CAC
BD21B128
3CEF6645
3D18ABCE
3CC1331B
3CD81515
3C561540
3D1A8BBA
3DB9F7C7
3C966C28
BD24D6CC
3B4B2CE5
3DB99879
BD7E5B68
BCF06325
BCF5E1D9
3AB08B23
BC2F4CDF
3CD1C9A1
BDB42E8A
BD50DA99
BD644809
3D5A70B7
BDA493CD
BD64FA76
BC374922
BB379D10
BD4F0A52
BBFA0E8F
BC714984
3D8351A3
BD7981BF
3CFB7E30
3DBE9D6E
3D3B439E
BAC88A9E
BD306828
3DAD1526
3C758797
BCF0A905
3D63B18E
3DB8E945
3C9EC95F
BCE908EE
BD1D7FF3
3D3FE919
BD5B21B4
3D9BDA23
3D528A5C
3D8FDD9F
BD585732
BD4339D1
BD554EBF
BC4DCA8E
3DAAF41F
BD56AB58
3D4EEED6
BCD9A161
3D6EFC5F
BD5DD791
BDA870E8
BC2FE078
3D2FBF6B
3D8CFE0B
BCB3088B
BB921480
3BB52F77
BD4C8D9D
3BA6E6DF
3D8B39A6
BCF9D513
BD56F20A
BD79FE7E
3D54AA06
3CCA0151
BD3A31B2
BD14281E
3C7125C8
BD997770
3CDF7C92
3CEDFA5F
3CEFDD33
BD4D0F15
BCF3E1FA
BC810873
BD94DE5C
BCBEBD3A
3C0AD419
3D882B55
BD9260E0
3D62008B
BBE4F969
BD0511F8
3CDC9C18
3CC9D7B0
BD6AE4AB
3BD9FA5D
3BB7447A
BD5E8772
BD23954E
3BEC0B16
BD51143D
3DB5780B
3D02FBFB
3CEFC769
BD356A45
3D2FDD93
3B24B806
BD989BDE
3D8AEB0D
BD9A495E
3DBCF29A
BD9B8BBD
3CA024F9
BDA718B7
3C9F53C8
BDA21193
3D9ED89C
3CF78E9D
3CFCEA31
3D30BF60
BCD29112
BD97E2B0
BCD70901
BD36B2C2
3CBD496C
BD661D1B
3DB26E20
3C38A5B9
3B25B75F
BC92D17E
BCA6753F
3C0A8138
3CEF09F4
BD86E04D
3D867ED9
BD1B14F1
3D635C3B
3D01B8E0
3D0970B2
3D426EC0
BBDB3B25
3D925D63
3CE780B3
BD884A0E
3C9ACAA1
3D2E8C98
3CE3ECCF
BD71635D
3D4C6211
BC567F9E
BC17B0EC
3CA4311D
BD2E18A7
3CC0BB57
BD3004B5
BD7DB0E3
BBF8C7D2
BCC686E8
BD10A074
BCE05D38
3C70B062
3D93F16D
BD455077
BD9ED7CC
BBF5E2F1
BC474B38
BD066715
3C46AE90
3D5398D9
3D4BC746
BD1FE576
BD0C820C
3D1D68B9
3AB6DF7B
3D083157
BD8D99D7
3D4A0AF3
BD2ECEDB
BDB0310D
BD323CA3
3D2F9BE7
BD1659CE
3AF60FBC
3D021343
3D8A4D4A
3D2A80FB
3D969A9A
BDA8D66E
BCE9A9E8
BCC57C10
BDCC91B6
3D834DB7
3D082DB4
BD88CCC9
BC40012D
3C6BF3EF
BD259355
3D558EF6
BD0E1319
3D055D3A
3D64BD7A
3D38600E
BD5E806E
BC94B5BA
BDB480E7
BD449934
3D3677B6
3DA94246
3D30CCBC
3D9021AB
3D328546
3D7962D5
3D9CD690
BD9DA1FA
BD5EA91E
3CF8D77D
3B2290B9
BC8383FE
BD10137C
3D836D8F
BD702E8F
BD967908
BD02ADED
3D651540
3D471167
3CB76E71
BCBFECD5
3D10407A
BD33DB9D
BD853A85
3D9C9121
3D6C59FB
3D990D77
BD06724D
BD9BECCE
3C26F929
BD795AAA
3D1B0DBB
3DB9DA02
3D8F1C90
3CF75572
3D83CA56
3D80E473
BCC78E44
BD9440F4
3CB2DC16
3C706F69
BCA1C8D3
3D9E219A
3D15C9C6
3BF3426D
BD1B56AE
BC841E02
3D6194D3
BD20B81C
3CA80F73
BD944898
3BDEB27D
3B211B43
3C8D73EC
BD7AB4AC
BDB01079
3D8F3DCC
3C8D0B87
3B601F0F
3D82C2DE
BD8B1ECA
BD0D8071
3DA29E15
3D9C988F
BD4768E2
BCE06AB9
3C8C2552
3D100C80
BC7750A4
3DAD3ECD
3C82CE6C
3D15C4B3
BE08E259
3D8B094D
BC92E423
BD9B0542
BCD9D28F
3D1F2303
BD36A05B
3D0F6F1C
3D2B1A63
BACCF5BD
3D48DAC2
3D7684EF
BAF8F8FB
3D87893E
BDA4D92A
BCFE7190
3C9ED7DC
BC81E477
3DF51A0F
3DDF2528
3C6CC36D
3D366EBA
3CAC4D25
3C71B108
BD45557A
3C9A4F72
3A876B6F
3DE1DDE6
3B2DC7CF
3D7E9666
3D547E24
BE02E71F
BC90F038
BD5A5EB9
BCBEB0E5
3CAFA691
BD986506
BE2AAF63
3D9FDC0B
BD5AEAE8
BC9811C5
BB924339
BCD0D5A6
3DE97A37
3E049683
BD8957BF
3DDD7686
BCFE684B
BDEF93B8
BD1DECD3
BBD7C0F2
3DC75356
BE0FA3D8
3CD52DAF
BD112638
BCE19AAF
3D7012E5
BB894FCA
BCC7293A
3D37D686
3D3B8133
3D019628
3B34AA6C
B991E774
3CB72439
BC03D9FF
3DCB3AA2
BCA4F191
3CB5DF80
3D588E87
3D7C8DA0
3D198460
3D980D61
3C82F406
3C2014BE
3D8B0119
3D90A1AF
BD2ED8D1
3DDFE8EA
BD7F5390
BD2230A2
BDA0360F
BCC24438
3DA2D3D4
3ADBDC8A
3D4715E1
BCB5CFC6
3DC0F85E
BD26766C
3D81EC26
BCAA1A2A
3D9DB53A
3B993068
3CD166B0
3C68EAF0
BC765E36
3DCF53A3
BD808420
BCE62D41
3D4DACCC
BD869DFC
BDB3CBAA
BA098A02
3E142AC9
BD9C4FE3
3D2C17EC
BD3ACCEB
BA9393F1
3D894778
3D10810C
3DB7E80D
BCDBD1EE
BE092C07
3D400DBF
3CCFE784
3DB1A140
BBDB317F
BC5EC3F0
BAB88DFC
BDB5C48B
3D86C8DE
BC395190
3C5F1F15
3D6C670C
BD1924CA
3D19296C
3D2A38C3
BDA7D0DC
BCC839E0
BCD22A4F
BCF3F13E
3DA6C431
B907EA9B
BB41D852
BCFC2037
BD5B644A
BD415362
BC4ED90C
3C0684EA
BDAA38A5
BAFAAF89
BCE7D45A
3D3E70BF
3D66D5C5
3D468E54
BA0E2DD6
3CB0DBB5
BC0655A5
BD8839C5
3D86177B
BD6F9D8A
BAF6609A
3DA85B02
3D5EA735
BD2BF625
3D24FFFF
BD2349B9
3D6A6DAF
3DB286A3
3BAF9D92
BD128818
BC3D1DC3
BD679B42
BD8E9931
3D232C37
3D42574B
BCB7B06B
3B629C17
BBEC7AA8
BC981ED5
3D024ADB
3D63152E
3D62540D
3D660BBB
BB337106
BD79A888
BD28F7B0
3C61D45B
3CDE2580
BCD74E25
3CA6889B
3DB8B271
BCC8A67D
3D8C00A2
BC87CFD8
BDA8BDE3
3D97EB77
BD64BC4D
BD489B07
3C95E44E
BD274BAC
BDB90C3F
BD45E862
3D35CE96
3CACB2FC
3D2D437A
BD5072DC
BDA84EE2
3D428A46
BCD42DCF
BC4BA32C
3D33228F
BCF3604F
3BC6A063
3DC18B47
3D652BF4
BD3C67C0
3D75AFAD
3C9BDA01
3D464B20
3DAE870B
BD8765AD
BCEACC11
3D65A563
3D687EC7
3CE6D6D9
3D65A190
3D86323A
3D8C2DC9
BD2D3497
3CC80B98
3D9004DA
3D428E2D
3D6D20CD
3DA84B66
BC237D28
BB876FCB
3C251833
BD258FDA
BD8213EF
BD460AD4
3DC479F6
BC7CF884
BD65525D
BD305B55
3D17ED0F
3D82BC26
BDA32EB8
3D04144F
BB34AA97
BD70286F
BD7B8CE1
3D621000
BCAFB7E9
3A8F8315
3C0E5045
BBDFAB77
3D085BDC
3D8577DD
3CE281A0
3DA877B6
BD5AB6F3
BD47F252
3CEC4482
BC430D51
BBDF6B0A
BD5DB3E8
3D91F3C6
3CB4D84A
BC0F01D1
BB89C01D
3D673500
BD1BB3CD
3D826079
3D8FCB98
3D6D3D18
BD483FC5
BCF385D9
3B6A43AB
BDA0F194
3D5932B1
3DA50AC3
3DA83060
BD49075E
3D35A5C4
3D53D37A
BCA0580F
BCFB3FA7
BC24E9EF
3D74D517
BD25068D
3CAF92D0
BD18A487
BD843844
BD0A2D53
BD5B7F3F
BCEA7381
BC80ECD5
BD8E3FC9
BD6DB631
BDA079F3
3DB5C768
3C781937
3C132912
3D9B5770
BD6FB0B5
3CC6CEAC
BC41C877
3C59B8F9
BD225895
BD47AE88
3D2EE75F
3D11EB45
BDA18904
BD9D51ED
3CD7D391
BD3EEB48
3D708932
3C94D874
BBA12B89
3D935EE0
3C52DB44
BC2B148B
BC68B002
3BA4D953
3DC7056B
BCE3013C
BD2A91CF
3D3C39BA
3CCD7509
BD84D62F
3D9DA068
3DA281C7
3D2FFFED
3DA5C865
BD2F76A8
3DBF1193
3D8CE90B
3D61999E
3D211772
3D970075
3D463297
3CB3C285
3C824006
3D2863CF
BD10EA43
BD2C9920
3DB85BFA
BBA42071
3D98DC1F
BCC84AE2
BCD2D52F
3CBF8DB5
3E0A429F
BBF547EB
3C6C1B87
BCD22C6D
BD9419DE
BD7FAF2D
BD9ECF92
3C507C7A
BDE5635D
3D41FE02
BD3DBF53
BD20289A
BD347901
BDA42F59
3C8D1AD0
BA981D43
BC497A93
BCF06B12
3CA3A1DB
BD78EE79
BD15661E
3D93B4A8
BC3C283A
BD837781
BD0F2575
BCC83284
3BFE7B30
BDE09237
3D0EAC6E
BC96C427
3D677BBD
BC8D93CC
BD0E24C9
3D013CCC
BCE4392A
3D841B55
BD931681
BDB43C25
3DA8B9AD
3D2DFCD3
3CC74813
BC477D62
BD674F85
3D3E1795
3D81D263
BC3EA786
3D03EB7D
3DA26359
3D82BE5F
3CFCF935
BD6997F7
3D4889D4
BDB71871
BCC6D1F1
3D03B92D
3CA48DF9
3CCC5C54
3D38134A
BC824621
BD2EAD9D
BD3CDDD4
BCB84962
BD0B904F
3C4D6E9E
BD84A4FE
BCF56D60
BD36DE74
BD4F2346
BDA12E01
3CC130D2
3D986876
3D5E65D1
3D7F11A6
BD361BB6
BD094D16
BD1FC697
3D98CB79
BCD363EB
BD9AB516
BD8EA360
3B45BC0C
BDB0C8F7
BBBC584B
BBD316E9
3D8B918A
3DA9BC09
3ABFED15
3CA7AD38
3CAB8FF6
BD6E5152
3D6CAB21
3D7E6C82
BB8FF5D7
BD2DC580
3D38F1A4
3BD26842
3D0C0641
BD049223
3D455C68
BAD109F3
3D708C90
BD85340E
3D91D79C
BD8552BB
3D4F5EA2
BCB3668A
3CE9E13A
3D6618F9
BD628947
3D9E2A8C
BD0D05E5
BD35117F
3D241E98
BDAB3F0A
3CD85455
39A52696
3E01843D
BD0B1F38
BD8F549F
3D3F074F
BC8C2A3B
3D29C0AE
3D6A70C7
3DA298CD
BCFB2B6F
BCE83A87
BC576A3F
3D5266B5
3E058E76
BCFE4F1B
3D130C8A
BC40AE66
BC0F38C3
BB9DFCD6
BD714F15
3D0F5A08
3D07E45B
3D8902CF
BDE3CC6E
BD245B41
3D92ABA5
3B5FDC1E
BD4A2C03
3C77FA63
3D57DD19
BDC5ECBC
3D1E824F
BDCABFD9
BC077677
3D7F73D9
3C6DBB85
3DCE5BFA
3B16AF04
3D3D154A
3D662757
BC961FDD
BD625F28
BDB1E0F1
BCDC1961
3DAE0F0E
BDBCBE56
3C452767
3B900B25
3D26467B
3D60B3FD
BC16529D
3D3C3AAE
BA413EA4
BC774922
3B94C0AC
3C90A4C9
BD834B96
3D43F634
BD87D51D
3CFB5BE7
BD18D615
BCA9466B
3DDD62A7
3D1A3F7F
3D364E69
3D951043
3DA76092
BC406825
3D1212BF
BD174CB6
BCB4E49E
3D81C763
3D0FF678
BCB46CCF
3D77D4CB
3D15C21C
3D2ACAE2
3DB718A4
BD48853A
3D3567E9
3D2C1207
BD95CA37
3D2D6945
BD9DEC4A
3D030A81
BE044130
3C947914
3CAF7A3C
3B60DBA2
BD71702D
BAACFDCF
BD626A9E
3DB4B2A1
3D82E5A0
BD840436
BDBF40DC
BCAD7CD0
3D7351DC
BD00A05C
BCE0AE9C
3DC12527
3CF63B91
BB38B86E
3D86305D
BDB9D786
3D6D678F
BDDA3342
3C2D4FDA
390B9B7F
BD85A1BD
3C4794F5
3D598329
3D8FB221
BD9762EF
3D86CA42
3C859E3F
3D880EB7
BD6251A7
3CFD3A2D
BD9FA727
BD8F7456
3C15A1E8
3D955EB3
3CB18599
BD888385
3D977E47
B88FFD8F
3C1BB283
BD31F5CC
3D94F56B
BD188473
3B9BB14C
BD66FFF1
3CB93CBD
BD90411C
BD94EBD6
3D60F57E
3C1CB664
3D076A3A
BD36588F
3CC9829B
3C376B5C
3D0E6856
BCBCA923
BD3A1357
3DAB0739
BD77701C
3C44D01E
BD9A210E
3D32F2FC
BCC565BB
BD045F88
3D1461C4
3CB59FE5
3DABFF0F
BD12BE23
BB96EFF1
BCDFC644
3D921ACD
3BB97329
3DA62D2D
BD555707
BD91D346
BCF40520
BD8D740E
BD794EBB
BCA66199
BD0AD223
3CBADE32
3CB0FD6E
BD9B1F3A
BCBB9790
3C51648C
3B8F7CCB
BDA2DBF4
3D0E76E1
3D2F983C
3B119615
3C3EFD16
3CA376E8
3D3EEB07
BC4AAA48
BDF1176F
3DE3327F
BC5FD72B
BE0B7DFB
BD74B72F
BD7EDAC4
3DC1D224
3D05A226
3BF09D4C
3DD5D6C5
3DA25BB8
BD159C24
3CFB3D18
BDB2E75B
3DD73597
3BFF09E1
3CE7C77F
BC6972A0
3DBD0AC1
3D030239
3DBE9AD3
BD8FA0B9
3CB8A172
3BFE998E
BE005BE1
3DEE135A
BC304146
3CB274FD
BC47AEC0
3DD0C954
BCAB7C4A
BE084D8E
3DBD94B6
BC9A1CC2
3D122B69
BDAA3985
BD35905B
3C796AC5
3D84C9F5
3E121DA0
3DE14C88
BC098854
BDAC264B
3C5A5251
B7D4913C
BBB043AA
3D695980
BC91550D
BDDF9706
3CB211AB
BD753B08
3BDC21BF
BDE0C9D0
3D99B17E
3D0F0E25
BDE6D343
3D9DEC15
BC7088BF
3C795FA8
3DA5F657
BDA7A020
3DC0C46F
3C9FA4E6
BCF2503F
BCEF2ED7
BD3136FF
BD2AA240
BD68AE7D
3D503FB9
3D32A018
3DDC42E1
BD1C63E9
3C84D212
3D8C862A
BD286C0A
3DC59573
BCE3E0D5
BC04C207
3D7A17C9
BBC19866
BDA5404A
BD4D2408
BC7E839E
3D92C68D
3DCEEB7B
3D170880
3D07DE2E
3C6DF8A1
BD4AD1B3
3DA5EB91
3D81F48A
3DABBD39
3D530C4A
3C10C783
3DEB3438
BDD28C63
BCE86803
3CA74BD9
3DC025B1
BD6EBBF3
3CEE9CA1
BDBAF374
3DA73D75
3DEBD1AD
3D79DA39
BD44FAD6
3D14D5D0
3D97E06F
3D3CCDEC
3D557611
3C32EF36
3A6F9829
BD858141
3DB63C45
BC6E956A
3DC8D372
BD33A434
BCF8DC4A
3D969F12
BDA1F217
3BC2A56C
BD9873F0
BD2218BF
BB2069C2
BD4B5190
3DA7B5FE
BD9FE0FA
3D1B1F86
3D80AEBC
BCD91DFE
3BA86F0A
BD816B58
BD967B40
BD55CF3D
3D096366
BCC13C0A
3DB6F010
BD3B84E9
3DC7216A
BC1BEE68
BC85C99E
BD82F27F
3CF82D18
3CC15C87
BD97FE12
BD4D8DBD
3BB43E0B
3DA81940
BC642A8C
BAB6497E
BD3E4C3E
3D71315E
3CF131FC
BD7B69BE
BD2F9FC6
BD16F4DC
3CD653EF
BD9C1318
3D4BCA33
3D64A320
3BC5F268
BD5B679A
3BDFBED7
BC45BA3F
3D23B4E3
BCEA1EC2
3D80294B
BD6D597F
BCED950F
3D081E7F
BDC57857
3C98ED77
3D17BB9E
3C557532
BCB74531
BD44AF4F
BD5BF747
3D75633F
BDB8BB69
BD865604
BDA5E319
3D1D787E
BDA3BCBD
3D5B63C9
3CF1476B
3D09A464
3D812E0F
BCE93080
BD9A98DF
3D95CC41
3C8405C4
BD848CD8
3D918852
3DAEE2A1
3C7C2C20
BC917579
BD1EAA3D
BDAF9BC3
3D872981
BC986F28
BDB634AB
BD36E470
BD5EFC4A
3B904D96
3D5F7A29
3BC33118
BC875229
3C70BD98
3D4BE417
BD92A7E8
3D93052A
3DA90B0D
BC9355F3
3BC95000
BD35ED8D
BDA49E30
3CF46537
BD7DC4EA
3D52EEC8
BCB5B7E3
BD0588AB
3D98798C
3D91B2E6
3DB756C7
BCAC8001
3D075A11
BD4FC4A4
BD34D82F
BD806504
3DB15125
BDA36A67
3C898EC5
BDD1C21B
3DA016F5
3D0FD4D2
BD8E976A
3D59BD89
BD261711
BC94A650
3C055BAA
3D01ECE2
3D874917
3D9E5EBC
3D6602AE
BD00C05A
3D1860BD
BCC9F455
3D51E72B
BD4F7E18
BCE03B14
3985E07F
BD035CCF
3BFFEA31
3DA2D7CD
3D28B91C
3CCCFE66
BC651065
3D7C57A7
3C7AA1B2
3D37160C
3D98C859
3C943292
3DB4175D
3D28954A
BD99EF2D
3DAFAFEE
3D9DA00D
BD908D11
3DB9A4DB
3D6D22C3
BBA5455F
3D6A82A8
3D0359B1
3AB4258C
3BAD76DC
BCAF08D2
3D85BB83
BD938E3A
3D5E28A0
BC9908A5
3D3BE74A
BC8A0F28
3D43345A
3D147DC6
3D440E5D
3C34413B
3D0CC8B1
3AA02D87
3DC41EE7
BD54498B
BD41C1B9
BD96F2AC
3D39E186
BD9247CB
3D90C87C
3D0611C5
3DD39E4F
BB1044B1
BD0FBAD3
3D733CD6
3CFD6922
3CA8B515
3DA1B8F1
3C8E6E6D
BD57FBC5
BD6197BD
BD5FD6B8
3D933B10
BB9E632D
3CA08404
3CEFE256
BDA2D5C2
3D98F1F0
3C05A86B
3CC5F5B8
3D4EBE67
3C093406
3D8CEBF7
BCCC50C1
BD234CD4
3D7923A8
3D5A2DEC
3C6D3C8F
BD0DA037
BC354FF9
3C7EEAAC
3DA7F94F
BD270CED
BDCB6A9F
3D888727
3DAE74AE
BD1D9FC3
BCF9E28F
3B794A84
3D9744A8
BDA1B497
BB36AE52
BC8A9E54
BD06F7C1
BB83116D
3CF5BE7E
BCFD160B
3D39DF98
BD22663C
BC0AB8A0
BCC68A63
BD62ADDA
3D125936
3B220EB3
3DA2F1E2
BD4EA79E
3BE64BB9
BD815A39
3D9922AD
BD0622D2
3D847CE6
BD59A184
BCD544B0
BD559853
3D955BA7
3C797867
3D69B962
3D21B087
3D8AD63E
BAAD5D71
BCDF5B90
BC544694
BD925729
3D85DC9D
3CF372B4
BD878A9E
3C35B71C
3C7AA481
BD327548
3C3BF747
3D007D2E
3D8C1C0D
3C1E6E40
3BA23AA8
BBC77204
BC77705A
BD84F7AD
BC52EB75
3D80ACBE
BD3F65C4
3C3C1FD6
3C1A7A80
BD9F2466
3D70FBF1
BC379731
BCEB4CD0
3CB5DEFF
BD6951DB
3D483D28
BD023D7A
BD8DA28D
3D498A07
BD9DF082
3D97D3DB
BD1B462D
3C4A2A9C
BAB5B6DC
3D9B5E16
3D2BFD11
BC999181
BD57C013
3DB66E81
BBF064ED
BD1A1BEB
3D5388C6
BD9FE57D
BD2FA3DD
BD9163E2
3D43595C
BA7E75E7
BD5715F4
BD428F8A
BCB851F6
BC39403E
BCAB5B12
3A1CDB43
BD9F8F1B
BC9F5DEF
3D95C65C
BD4194BB
3D19DB8C
BD92D97F
BD9BD66F
BC794A44
BCB1EA03
BBF494E8
3D056A20
BD404D15
3CED5177
BDB2DB1B
3CF8AC5F
BDA12085
3D8AF8F5
3D9E09CC
3BF02542
BD93E1FF
BD65A5F4
3D7C2641
3B93264D
3D6A1218
BD3AB220
3D01B4DC
BD9CCDE7
BD2F4CFD
3C552739
3D933BDE
3DA52A48
3C7A8AE1
3D777133
BD1F653E
BC23A6F9
3C984754
BD96DB0B
BD823362
BD5885F9
3D8FC71D
BDA545C8
3C972C97
3D8C1559
3CD60F71
3CD9DBE4
BD4C3550
BD821438
3C49B662
BCEFDC67
BD128AA7
3CD49B78
3A5E15F5
BDA10BC6
3D49B1A2
BCEF5FFA
3BCC3F5E
3D9F6E83
3C57BE8E
BD0E063E
BD9A9CA5
BC727DCC
BD20D6AA
BDB40F0B
3CDD51F0
3D3E0115
BC7E59CD
BCBB90B5
3B02BB87
BB926532
3D9A7A70
BC372E4A
BD1EC8F3
3D131739
BD871DD6
BC6A0E1B
3BE59C3C
BC5F1D47
BD8B5D9B
3D5D5362
BD6C9804
BCB3D7C9
3CF133EF
3C57EEBF
3D22B1F4
BD31F94F
3CF9F06C
BC330942
3A947F28
3D928CDC
BDA25AA5
BD37000F
BD7F8A95
3DE6EA0E
3D96591D
BCD7A746
BC7CF6A1
3D9BB198
BD822FB1
BB8237D3
3B14C5CA
BD5F093D
3DA47643
BD52E4EF
3D842F91
3C3DB8C8
BCEA0D70
BDC552F4
BCCDB3A2
3C239EA0
BC5AB95F
3D093291
38ED3AD6
BD889C07
3CF1BC1A
BD9F6DF8
BDAE3CB9
3D13671B
BD8D34AD
BD5A3005
3D9A5E4C
BD25B261
3CF15161
BCEC9F30
3C8073D3
BDB4AB66
3D4E4EE0
3C3D5825
3D3BC89E
3CE8C8BC
BD370311
BCD7BF1F
39B66659
BD9E52CB
BD9CBE63
BCBE2311
3CEF0053
BDAEA51B
BCF569F5
BD2FB778
3D73C2B8
3C607F72
BDA42F13
3D83DD17
BD9ABA3A
380DAF00
3D69D4CB
3D0F84A3
3D66A6C0
3D237880
3C32147A
3D80E497
BC6E7818
3C801A6D
BAB4C13D
3C4D0C78
BE06570C
BD0D7DA7
3DEAF1A9
BD9C112F
BC8DD3D3
3D18EFEB
3BF97044
3D3CF7D8
BD370C54
3D374BD4
3DE513BE
3D86210F
3DBC186A
3D923B70
BC6AA377
BD9A9D7D
3BF896D5
BCC70B47
3C8DB108
BC583AF5
3DA02727
BD4F783B
3DE71609
BC6B9F2B
BD560C67
3DB4BA4A
BD1C3426
3DB42D8C
BD91D051
3DF38A56
3D46B03B
BD7910A8
BBF9EE6E
BDD84165
3D0D0150
BD1D7CEE
3B83D44B
BD0A76D7
3D5F63B6
3D21D5C0
3D5B5B4E
BC2EC05D
BB95F535
3CA86FE1
3D6334BB
BDB157E9
3DF059E0
3D02FC03
BD452EA6
BA527D10
BDDE5E86
3D7BAE34
BDD61073
3D376BF5
BD1736B6
3D1A5E4D
3D1148B0
3D6D5878
3BE4CBDD
3D92755F
BC65872E
BDB9347C
BCF7217F
3D3A13DA
3CB71068
BAE4D95E
BCBB4835
BD34056E
BD252F4C
BCEC700B
BD02E807
3D3734F0
BD9DC7A0
3D096D87
3D1EAB94
3D45219B
3D1DDEA0
BDA5D378
3D8CC108
BB6E6A00
BDB98536
BD4C3D0A
3D080A0A
BD9ABDDD
3D0371BF
BDA20DA5
3DB05B63
BC94903B
BDA85F7A
BC335954
3D5252D3
3C94C6BC
3B0971AE
3DB00A73
3D7A11BC
3C82D0C0
BD6FAAC0
BCD7205D
3C8844D8
3C9D6F21
3CF54AA5
BC78FD42
BCF580A6
3C085CA6
3C48AEA5
BD22092A
3C4D572C
3BFA3612
3C73FA83
BC7DD48C
3C0AA5B6
BD56B543
3D442AC7
3DA50E1A
BD878FC0
BDADF461
3D1E663A
3D1F126A
BD36137D
3D754356
3CEC7676
3DA0BC72
BC9932D7
3D6CBDB6
3D8465C6
3D1271FB
BD411988
3D41EC19
3D99241B
BD99DD17
3D2B93F5
3C3AE503
BD38BD71
3D4AFD95
3D09D27C
3D9782C7
3CA38D1E
3CE2AEFC
BD11354C
3D86E681
BD845764
3D763764
3B44BAB0
BC548471
3D82B7F6
3DAB2FBD
BD73887E
3DA074BE
3C694A26
3CE7DCD3
BD035242
BDBE91D6
BAB0EE75
3D4EA265
BCA36728
BD37AFF5
3CC9C25C
3D5565BB
BD5AFAA5
BCF76780
3DBDDAE4
3C03F355
BCFF3499
3BAED9B2
BD853D60
3D1EC2A9
BC838911
3D91D9D9
3DB26270
BC694390
B9B1E6C2
BD2EAC1D
BBBDB4C1
BD225D02
BD305D05
BD8C0790
BD8DD883
3C11E7C9
BD7F35E8
BC124ED7
BD1DD302
3D2CBA63
3CD9C4DD
3CA5F1D7
BD295787
BD8E5316
3CADC444
3D7BA37A
BD0C6A94
3DB3A397
3D4515C1
BD89CC2E
3CC52E5D
3DEBF647
3D981836
BD6C2159
3D03956E
BC87F29D
3DEFF858
3D391855
BBD5C26A
3DBAB0FC
3DBABF56
3D328D9C
BCF74E25
3D752680
BD2C11AC
BC2D2B9D
BC1C0B6F
BDA9E937
3DCD5A58
BC7F60A9
3D88E5B9
3D75F842
3DDAF30C
BDB7C2BD
BCB61F21
3D399AE4
3DB411D0
3D760A81
3D55CA8A
3C74A50E
3B1F3463
BD9CC9D6
3D833017
BDB8C373
3CA817D7
BC8E72A4
3D17F8CD
BC82789B
3D96A0A7
BD10A663
3C52F03D
3C7FEB1D
3B5BB6F5
3E15E9CA
3D9EA77A
3D91D15C
3C54F6B2
BD324F40
BD423C9E
BB60E863
BDC3DCE3
3D3A15E3
BDF7AF0D
3DC68E40
3BFEDE98
BD5BCB48
3CB3904B
BAD1881D
3DC79E17
BD26E6BA
3CB344B6
3DB649A3
3CFE1D98
3D9CFF65
BD08BE7B
3AABD688
3D4EF3D1
BC828BB1
BC90D936
3D584422
3D6BB327
BC660D25
BC9F0B63
3CBBE509
3CCF3FDF
BC785734
BC80842F
3C7BE2AF
3DBA1A86
BD27907B
3D89F4B5
BBA732DF
3D27AAC7
BD64DE56
3BF0EB65
BDAB7C26
3D69CBB6
BDB108F3
3D4FCB09
3DB3ACA9
3CBA8B21
3D4E174A
BD99EC61
BCAC590F
3D9B58DD
BCDE25D0
3E05FFB6
BD9D250E
3D93469B
3A19BAA7
BD845DC1
B7BEECBA
3B3B8B31
3D0E55E7
BD2E59E3
BCC17637
3CCE35C8
3DD144DC
3D819841
BD9B6D98
BD41C611
3D1BF884
3CE0309D
3DE00166
BCF608A0
3DE25DD6
3BD753B9
3D9053CD
BD8EA3EC
BD6278DE
3DFDA2BA
3D35A30A
BCA11DC2
3D944D3F
BD698453
3A501658
3D9FC38A
BC713BA2
3BFE095B
3DB3B218
3C63280E
BC87583E
3D5BC11F
3CB2D9BC
BD65C7CB
BCDCB64F
BCD5C132
BCE53468
BD0FE2A1
3BE43432
BD52837D
3D058AF2
BC5879B4
BD3B1D2D
BCE90F02
BC83ECCA
3D799293
3C3581CD
BC5A8F22
3D6A344F
3DB3DE0A
BD35F6BF
BD9DAAB0
3D9B0326
BD097841
3D28424C
BD207060
BD559302
3D13545E
BDA4ED27
3D1B3FE2
3D312999
BD3F2CB1
3D6902A0
3D1F3C94
3D194B43
3D9E5011
3CB10201
3D027C0C
3D5B0295
3C5A3ABF
BC968746
3C2F793F
BD2B96A4
BD7E1686
BD1B16FA
3CEC0EC7
3CB45C63
3961FD36
3C85BA64
BD9B2FC4
3DEE3CB5
3D54A284
BD4DF5DA
3B9316DE
3D77BA21
3B810A97
BC687778
BD90ADC9
3D2D2DE3
3CB17D26
BD907C0B
BD83CB7F
BD118EB1
3D98CF13
3D0E41E5
3D8DF42A
3D0897F4
3D04576B
BD18C380
BD06B45F
3D9BCD09
BCCA4203
BD55CB08
3D8A5131
BD45E85C
3D684C7D
BB9A4A03
BD6B35EE
3D1C22D3
3CEFA59A
BD694368
BDB4B338
3C4AC5A1
BD35F989
3D8EB147
3D9DC118
BD1045CE
3D075CB1
BC2BD8C1
BD90E412
3C23152E
3C2B560F
3D738CDD
3C5ACAC7
BD05DD27
BD82A88B
3BED15ED
3D35FA68
3CC503C6
BCA37B35
BD3C8EFD
3D87FD2A
BD021B28
BCBFBAD6
3C05CA4F
B8FA6663
BDBBF1DA
BBF79A81
BD5073B3
3CFFF219
3C6C9CC1
3C122EC1
3D0EAFFC
3DA7B99B
BD2492B7
BCD3E8AB
BCB3555D
BD3C35DE
3DA221F0
BCB3262D
BD0FCE87
3D841A09
BD6A776D
3C00734D
3D8197A0
3D8B6BE0
3D4DE747
3D5259E5
BD27A3F3
BD05E072
BDB5D1EC
3A4377B9
395CCF23
3D8E1FBA
3C0AD861
BD38F255
BD437BC3
3C905786
3C7134D6
3D7E6866
BC94BFE0
BCE2354A
3C1E76D9
BCD3A08C
BD795734
3D6502F1
BD8F0E13
BCE1E34A
BD96E6D6
3B1C7B76
BD0A417A
3B27754F
3D561D71
BC83A26C
3BAD26EA
3D378779
3D980E3B
BD65B6D1
BC83AEE7
BC8399DE
3D1764EC
3A2EAEAA
BCF811BF
3D40D606
BC43095F
3C398DB6
3C0B81C9
3C8CBE5F
3D9B512E
3CC84E63
BD2C5DC7
3CFE58B6
3D33FD20
BD13D4B9
3DB5187B
3D7B1438
3C691024
3D0FCDA6
3D9CCE3B
BDA4B969
BC729B48
BBE6A24B
3C6F8594
BD0D44C7
3DDDBFCB
3D108D1B
3DAC2100
3CE80735
BC9D3F61
BD36AEEE
3CD5B660
3DE87FD1
3C8F19B4
BD9CEF07
3D954DF9
3DD4BCAA
3D8DC57E
BD20C3D5
3D81C861
BBBB8364
3D0DCCF2
3CAA59C6
BCA6F9DF
3D2F92EB
3CE94F54
3D70C24A
BCD3564E
3D6DF41F
BD58A883
3C17D2C5
BDA87A5A
3D4A7E99
3CA22E3E
BDC7FF99
BCB219DE
BB1E556B
3DDE8571
3D80499F
BD3C83DF
3DBB8919
3CA32CBB
3D024B57
BDDFFA36
3D900591
BCBADD31
BCB17B6D
3CA7B622
3DAB8B02
3A78BCEB
BD8BA647
BD29A50D
BD6BF239
3BC9AD08
3DCD8ACF
3CD18635
BC26B683
BD9ED00B
BDAC1836
3D0C6EDC
3D371ECB
3D669937
BCF75811
3D19ACA7
3D9B1F6D
BD1AD9E6
3DC88A6E
BCC107B2
3CDAEA01
BD842A9E
BD9BF1BD
BB52B2C0
BD1C8902
3C7DDAC2
3D8955EE
BD9661E9
BD56EEF2
B9CC3476
BCF0D1AF
BD19E4AB
BC207409
3C88570C
BDAC8EF0
3D971AA2
3D805F70
3D9C0D83
BD6ABA41
3CDCA0D0
3D4ADCA0
BD9F4D41
3D9870E2
BD0D58E1
3C9FE1A7
3C62455A
BD1D459E
BDA0695C
BC231B99
BD5880E0
BC45E964
BD3638E4
3D0B4431
3D516164
BCFBA41B
BC4866A1
BDADA2DF
BD6851F9
3DA74951
3D1B31F2
3D61FBBE
3D756AAB
BCE7AFA2
3C353F52
BB826E85
BDA00AAF
BD64D438
BD03E0A0
3AB55DF0
BBDCC66A
3BBAA98A
BD9CB876
BD98B9CD
BD19FA4A
BD50897D
BC1471A7
3D85CFE9
3D0B0339
3C642B0D
BC908A97
3D1C743A
BD7379B2
BC2452A5
BD735260
BBF6C32B
BBC15A7E
BDBC717B
BD8D3427
BCC2545E
BD5B023F
BD103F83
BD924576
BD514681
BD1C4F92
BCCC2AF6
3D374E99
3D46E8A5
BD1C1D8A
3DB3D0AE
3DA80364
BC6B959B
3D2535DA
3C1AC7E2
B9A91E9D
3C4A8204
3D1D69A3
3D58719E
BD0CEDF2
3D0D2001
3D3B31DD
3BE18BA1
BD8C0D14
BD0A570C
3DA07678
3D0A72E3
3D91E675
3D298F4E
BD14ACCB
BD3FD570
B930FD38
BD7F57CF
3D512661
3CE185C1
BD126C39
3B03098A
BD5AFBA4
BA319B99
3C4DE32D
3D97F765
BD27020A
BCA6B4FB
3D5D5294
BC5D0138
3D80097B
BCD6714B
3D2252D1
BCF4E423
3D8F2BC9
BD21511B
BC60B887
BD4274D7
BD816AF2
3D43A11D
3D6F1B19
3D666C00
BD71C740
BD93D825
BC49D50B
BD2AB269
3D8F27F0
BD3D3194
BCAEB6A2
BDABF27B
BCCF08BC
BCCC8691
BD34F6D8
3D795829
BD28CE76
BD8F65EF
BDAAC30E
BC66A860
BDBA0546
BCFBA619
3C4FF724
3D9DF8BD
BCAFAB69
BC87D2E8
3D90B6BA
3C21D548
3D1060FE
BD32BD57
BD8F0D97
BD001A8F
BC80E5FF
3C55A6C6
3D63C0DD
B8F7E783
BD834F8E
3DA2CCFC
BD4573C5
BC410995
BBE456AC
BD9D9569
3D0E8F17
3CFB967F
3CAE43BB
3CBF18B5
BA39ABDE
3CAB4233
BC830934
BBB06C9A
3AF50E5F
BC5DCF69
BD0B663D
BD9FDCE7
3D52F9AA
3D2BAF03
3BBE38A0
BD5D3A76
BD8D7EA3
3D3AA789
BCABDA79
BC5E5DA4
BD16C737
BD483EBB
BD10861A
3DA62414
3D0C1923
BC96C670
3CAFC590
BDA0D2F9
BD84CCEC
3CD1041F
BD450BC6
3D0C9943
3D0621A5
BA51C88A
3C2DCCB7
3D8163B7
BDA1D31C
BD95D899
3BCEDCC7
BD4CCE07
3C022F4F
BCF8571F
BC15B452
BC9BFEE4
3D9EB126
BDA1DCF5
3D685EF4
BD343E8C
BBCD6CF0
3D884397
3D2852B5
3D79AE88
3D39FAA0
3D0775E3
BC97E1B9
3CB63104
3D57B5EA
3DA7FCFE
3C70ED3E
3BE495D7
3C791DCE
BC7AF78D
BC9A6D9A
3D852E18
3CA87F96
BDA9A41B
3D9D7BB7
3D6FCAC6
3A732628
3B64A0FF
BCC8100F
BD3B8FA6
3D22C463
BD2A0C18
3CB731DB
3D38FE64
BD55626B
3D8D8559
BD6534D8
3D74BA34
BDA9CE60
BD87C606
BDAEA567
BCA7C6E4
BD803DD3
3C9FED56
BC40A95E
3C157486
3C4D9A93
BD7701EF
BCC4B2E2
BD69D0B9
BD9F2FE6
3D0F7774
3C092AC1
3D8B1C8D
BC2C4CC5
BD6AE833
BC0DBAD4
BDE6379E
3DC6DE20
3D352645
3C547F3E
BD18EEDF
3CDDBE6C
3D625852
3DAE13A5
BC11E774
BCB5E595
3CEAF48B
3CBD0EDF
3CAA0E46
BD99429A
BD1DC380
BCA0506D
BB97D1EE
BD35A353
3DC39C4B
3E03541E
BD1A3B35
BC1BE731
3D6CF536
BDCC65A0
BE0E0DDF
3D954E00
3D18F1EF
BCE7C6D9
3D568FB9
3DEC9934
BC0C74D8
BD614A2A
3D1BFD54
BCE91D25
3C3A5F21
BCE08495
BCF93637
BE2CE21C
3C951825
3DAEA7F9
BC5077DD
BC4C04D1
3D4C00E2
3C11D723
BBC3659B
BD0DBF53
3D8477DE
3D3D0A3C
BDE02996
BBFE48C6
BDE5D424
BCDBD305
BDB97D47
BD385FC0
3D8B096A
BDF9F168
BD06E5DB
BD070024
3D440BAE
3BA9493A
BDA5C5F4
BD04423A
BD9435BA
BD07DB2E
BD984C8D
BCE43AD3
3DA5D975
BD8ECE60
3B9E2214
BD514BED
3D9DF1B0
3D48D099
BD295704
BCBC3362
3D69EA92
3DA4939A
BD18BEE3
3D172D05
3DD965E1
3C280E67
BD88174D
3D0A2139
BC1D18D5
3D09E0CA
BD1622E7
3D400688
3D12FBB3
3D1D80C7
BDCD8974
3C52F24B
BD1423D9
3DC71AC7
BD155A22
3CC9CB3B
3DB05ACC
BD5D9F70
3CDA0DD3
BCC92481
3DA3063B
BD22C5A0
3CD4DD42
3D1578E6
3DCF5141
3D1DF03B
BD01F7FD
BDDA61BE
BCB4C128
3DAFDF7D
3DB8DB9A
BD857E2B
3DCC5672
3CB1BAF9
BD858DD2
3BA1DC9F
BDAF180F
BD01056C
BDB4E0FE
3D43862F
3D4744AB
BC4E1003
3BD38EF3
BD527147
BCD56D1A
3D009650
BD1EF716
BD83E7EF
BD9D6E2E
BC7B0C66
3DA93418
3D36CF3A
3D55D892
BD7C4253
BD965285
3D974A00
3CDBE849
BD2A90C0
BC7AE48D
3C675B6E
3D90E0E3
3D761D76
3C975DF5
BCD19C2A
3D80217F
BCC82FF5
3D8B7120
BD81713B
BBFFE9DB
3D4E0C9B
BC2270EE
BB9A118F
BC47E6BF
BD0D0A8D
3D587146
3D42D59D
3D749BDC
3D30C8FE
3D8F3285
3BEADF31
3C1046B5
3CBD6FF8
3D31B738
BD93B5D0
3CD9CC34
3D8FF1CF
3D3C5596
3D892033
3D664F78
BCA1EB82
3D3A5271
3D805B9B
BD02C552
3D5CB0F9
BD65D81C
3D7C9DAD
BAD8721C
BD828966
3D9DBFF2
3DAC10BC
3D96B473
BD974D5B
3D3DCEE0
BD2A5BF7
3D6F8554
3DBE2B63
BD18E23C
BD4A587E
3D74BF04
3D980721
BD06F649
3D91267B
BD869EAB
3CCD889A
3D04B3A4
3D3B8F50
3C9D1418
3B228D89
BD8F1184
BD9FF26D
3C7F21B4
BD617216
BD5CBA63
BCBC04F9
3B147BF8
3DC279FB
BD260129
3C2C318C
BC8F9798
BD2375E1
3BECA2D6
3B952617
BC686C45
3D4DB446
3D716C51
3D05D329
BCA272B7
BD9A7DB6
BD8AF45B
BD69A65F
3D94819E
BC541EDB
BB88237B
3D65B891
BCEE6777
BCE805A8
3DA9E81B
BC4AD566
3D8ADE09
BD93BDE4
3C2D531F
3D61167E
BD47109E
BD1175EC
BD8FFF34
BCADB30C
3C04367B
3D6D0765
BD1451B9
3C1E3E84
3D7C6E91
3D807E6B
BD44E76B
BD8207FE
BD81852F
3B15E606
3D922E0C
3CB1F3EE
3C1290E7
BD620ADD
3D75EB2C
BDA49DE4
3C41D1C7
3DAA2A4B
BCE6E6EF
BCACFEB1
3CA5742E
BD32BBD2
3D6CE42F
3D5E87A5
3C9A8582
BCD06F89
BCBEE1B8
3D8C2E11
3D7D2CE7
BD63324A
BC96DEA4
3C2E3298
3CBEBFE9
3D2570F6
3CB5F91B
BD5CE213
BD8E2CED
3C44006B
BCB3B6D7
3CF4279A
3D1704A1
3D69E21C
3C6888B5
3B38AE88
BCFAC441
3C9FF7F2
3D409C98
3BED5EE9
3CD26F18
3D028838
3D30C2C1
BD5649AB
BC6ED2DC
3CA7B4C5
3D5EAE06
3D597659
3D433480
3D5349A4
BC440299
BD673261
3D6D8636
3C1B0F25
3CFD3DA3
BB8E748D
3C177ED7
BCE9F13B
3CA85D57
BC7F0B18
3D0824F2
3D83F2C6
BB0AD45A
BAF3F027
3B00F431
BBF935E1
BB92B1C9
3B5376B5
BD601A6F
3D169296
BBEEA0F2
BD3A4BA9
3CFFC085
3DDAC522
3D65D1F1
BCEEAA8D
BBB19360
3D70EB80
BCCBB70E
3D79131C
3D8ACB07
BD5979A9
3CFED73B
3CB36EB2
3D87EE94
3D13A320
BD40ACA6
3CB7D3AC
BD649741
BCEC9CB1
3C9FC62E
BCB33C88
3B889423
BD396E10
BDA369E5
3D7DF224
3A8DA13E
BC9B7303
BC93F7FF
3D4EDD08
BD12AB00
3CCB8C91
BDC4CD53
BC977791
3D1429FE
3C8B11DC
BC6FE972
3D990D6A
3CB47AD7
BB3B1265
3DB26068
BD86B180
3DA693AB
BC05BE5B
BD87A4FC
3CE3FCEF
3D49C95A
BCC236A7
BD12C557
3BE985C0
3D31B991
3A372398
BCE0126A
BCA7EED7
3CA6777E
3C525DE6
BC656B7F
3D483322
BDA6808C
BC5C781B
BC4A7087
3D851720
BD712B76
BC23B0F5
BD82C4C5
3D613F73
BDB3E080
BD210A1C
BD66524F
BD5289E0
3DA00BED
BCB81D83
3D9645BB
BD100D03
BD64897F
3904AFD3
BC8C1095
BCCF4847
BD28563B
3C05F31F
BC6DB3F8
3718564E
3CE40670
BD4331D6
3B901F32
BCF90804
3D4C60E4
3D2AD678
3D6E1026
3D852D8F
BD2321AE
3D3C347F
3D7885F9
BD58D224
3D994B3D
BC748FD5
3CBA91D2
39D12F88
BD0DA62E
BD40EBC6
BD9B97FB
3D720F29
BD1F888F
BD8C0029
3D6ECF84
BD6E1717
BD6584E5
BD0BD9C8
3D3CC01A
BD9B1F34
BD14DC66
3D6C6638
BC89D55C
BC05E22D
3DE59036
BD284E20
BC84F913
BDB10819
3CE2B54C
BB2F47D7
BD76D562
3D42241F
BDBBA9BB
BD65B28F
BC4856F1
3CC2C6F5
BDAA0EC2
BD5F745C
BD0E4F5C
3D046C39
3DD355DB
BCC3C115
BD417E50
3CCE9D57
BD41EC31
BC3A9405
3CB93779
3D26E40A
3DE5BAF7
3CAD7D82
BCFA7ABB
BCB34430
3DC109EB
BD84EBBC
BD94B0FE
3C72784D
3D9D6FE7
3D77E125
3DD407F2
BD81B969
BCA2F421
3BB24A6B
BD0067FF
3D5024F1
BC35D7FE
3DD3FABA
3D5640AC
BD1EB6CD
3D86A614
BD43EFF2
BD0F34FF
3C473660
3D8A3F93
3DE5C890
3C5C180F
3DF0ABBC
3DD41B16
BCE8B6AD
BD34654D
BDB4F87D
3B1C3A08
3D1894FA
BD94DAC3
3B30DA53
BCFF5DD9
BC47AE80
3D275B54
3D3C295E
3B0CEE3B
3CF8613B
BC976613
3C6642C0
3D575E10
3D1BFBCA
BD41B712
3CC50314
BC287E84
3DF7B716
3D2C6D2E
3E07E153
3D01DF05
BCDF1788
BCE6C6DE
BD073823
BD2A0057
BD128E58
BD85AC6B
BBDDCE27
3C241D0B
BDA37F26
BD05F032
3D9DBC66
3DD1E85A
3D5F9B9F
3D4070E1
3D4431E9
3CEF36FA
BD0CB23D
BDB0D5A6
3D4C6475
3DCAFFF2
3BC319DB
3DA78BB7
BD8DE370
BDAC3173
BD7F2E56
3D312069
3D3327B8
BD0C1A52
3CA8BFA7
BB9FE11C
3D868365
BC360494
BC9B9BF3
BDC6C8D4
3D77F7C3
3C35FBC5
3D16C29A
BCF3C38C
BD43CEAC
3D884E0C
BC3E883B
BD27D1CB
BCAB32B4
BD6814E2
3C9FEF29
BD949515
3D502F80
3D825942
3D4941C3
BC371596
BDCE9108
3CF6B056
3DC36474
BCCED16A
3AAA0D2F
BCA61E07
BD871E72
3D0C8CC1
BD6872BB
3C8702A3
3B7FB933
BD7BE533
3CE885FB
BD065BFD
3CFA1946
3CC298EC
3D58B9D5
BC8362F6
BD0F6101
BD9D05DC
3D3D5A61
3C8B6DBD
3D81F135
3D982DFF
3DA1C916
BD901E98
3D5A7707
3D75FFBC
BCEC4015
BDAB0EED
38F87319
3B0FD39D
BD9F693C
BCA7F8CD
3CB1037E
3DA4EA9C
BC2DB81F
BDB316B8
3D9524CD
BC565851
BD1280CE
BD82BAF8
BD5CD437
3D02A635
3D4AFF2D
BCC417C7
3D1FF0C9
BD1690D6
BD8B3050
3D005146
BC655483
BD1B58FF
3D2B71FE
3C244BBA
BCD7D9BB
BD66B213
3CA9DAAF
BD1F500F
3C2AA733
BD9711BF
3D858C4A
3D9A5C26
3C8A3DA1
3C8670F3
3D04E4FC
3D3C1E6F
BD2A0F56
BD6C0BAA
BD2E56D3
BB14B026
BD764081
BCEBB26B
BD9B9340
BD8395DA
BC948F23
3D99BEEF
BD6687F2
BD4CB85A
3D1864B3
3D97BC43
3CF67974
3D272251
3DA859E8
BD531A71
BC72E83F
3D62FC7C
BD84B674
BE008288
3E02876C
3AB8E894
BBF789A4
BD99F04B
BD2347F1
3C015540
3D97B9DB
BD9A16A5
3CBC6C82
3D99E53F
BC9C98E8
3D30FEDB
BD4AB3E3
3D5216A6
BD6A4A33
BD09A9CD
3D4D2AC3
3D31776C
BCAD2C2E
BCD485C9
3CEAD556
3DAA59A3
3CA22224
BDE34BFC
3D351352
BBDC1C0B
3D12D18E
3D22F4BC
BB574AAA
3D38FDE6
BC928A46
BCCD9B6F
BDA08A40
3C8BCC67
BD038F9C
3CC4BB30
BDF1A24C
3DC0A11C
BDD05692
3DFD6C26
BA0136A1
3D35A93F
3C807ABA
3D2484E8
3CD17CBA
3D8374D2
BD110E2A
BD4E87A5
BC8711BD
3B956BB8
3DBD43C5
BBDDA867
3D9ED32E
BC999E6C
3C8B5E88
BD112AC5
BB17D7F8
3D6387F2
3D4F51C2
3D8CB088
3DE197EF
BD9DB589
3D46E369
3D35CEE4
3DEF8E44
3D111571
3C8D56DB
BD51C768
BCE71553
3D3BF0FF
BDABC1B8
3C881B93
3D2C98A2
3DFD2310
3DE59399
3CA549FC
BC908239
BD089A00
BC707137
BD00D42E
BC7FA30E
BD201308
3D19497A
BBC91979
3BCFA443
BC82F0A6
3CB2DD42
BD63D97C
3D9F3171
3D2C277B
3DE45456
BD573C5F
3DBC34F5
3D093E04
3C6F2DA0
BC9A9862
BCECA6ED
3CDAE80E
BC9C705E
3D2B7F75
3B8BB947
BC3DD96A
3D33EA30
3CA65D77
BCDB53D9
3CA695F7
3DE17B93
3DF945AB
BB5A2C06
3DF280E2
3D313FB6
3C8E169E
3DE4DB45
3D4B8F18
3DDBB5A5
BB1E13A7
3DD25F6E
BD34775B
BDA65AFA
3D95DCF5
BD192065
3D213422
3D8C5FDC
BCA00B23
3CB7CB59
3D77BB20
3CEF9E89
BD11A023
3D8567C6
BD65A018
3D4EC598
BD00CCAC
BCDFCF53
3D3AFF32
3CAC9758
3D27D0FD
3D8EC3D5
3DA059B3
3D838F2C
BD88E78D
3D3D0F73
BD7D564A
BD09F53C
3DA3EB1B
3DAB3AEE
BD41A0E7
BD23CA2D
3D9A4EA7
BCEA5A0C
3DA157F6
BCAB8B9A
BD86FF79
3C9B1F00
3D78E349
BC9651F1
BD8D4184
BC20D934
3BA2030A
BD9DC384
BCFAD9D6
3DA4C188
3D807260
BD97DC5B
BD09C7E0
3CB0FACA
BD7886E2
BD3848CC
3DA6060C
BB0A12BE
BD392C44
BCBD8A95
3ABD0B8F
3CE57154
3B5B9842
BDAB09AA
3D45651F
3D89B5F1
BCF200F4
3D937731
3D92791C
3CC28BA6
BD55AC14
BBDBA8DE
3DB2877E
BC5319E3
3D563762
BD41C5D6
BDB69442
BD354A95
3CF7CAB7
3D2FE373
3D820D0C
BD2CF1B8
BC6EE8EC
3D9AE823
BC6BE333
3CD923A8
3C4EC0AD
3D0E62C2
BC992D73
3D3DCA5B
3CE995D1
BD302E0E
3D631693
BD839CB8
3D47D693
3DABAFD4
BD97D646
3CAB5F39
BC8F53B5
3C5EDC8F
3D6A7FF6
BCEA0D95
3C381B0F
BC5A6C93
BD053FE6
BD8B0D7C
BD2B187A
BCC66468
BD6CFE43
BD8FA49D
3D7C2855
BD82BD4C
BCC3D8CD
3AFB5C01
3D99D032
3D212564
BCFCE90A
BC5C5C17
3D7D0351
3DB73FF1
BD1C99C9
3D19E643
BD81DB10
3CE1B5DD
BC7386EB
BCBC5EE1
BBD62134
BDC39780
3D269FD7
BD8EED92
BC637505
3DA5CA82
3DC299E1
BD90003F
BC733C78
3D00855E
BD18FE1B
BC525B4C
BD245C73
3B88CE5B
3D2AA37A
BD49BD3B
BD4900DB
3D8C6904
3CEAEBB1
3D04ED55
3D092E07
BC4D6BCE
3A1D02DB
BD6411C0
3D227D08
3C71C4F4
BD56819F
3BD5F515
3D15CCDE
3AA6CF0C
3C75EF30
BD8EAA62
BD84C36C
BD67CE3D
BD7CCA8C
3D6D90CF
BC3D8B46
BCBB7099
BD3C2550
BBD67268
3DCEF61A
BC31C4E9
3D19FC33
BCE35306
BBE7A89B
3D1EF5AF
3C3FEED8
BCD75DF5
3D97BF6C
BD7D0A11
BCEC2B3C
BCD513F3
3D912EA5
BD99A99E
BD85C42E
BD860D93
3D9698F6
BD6ED9F0
3DB515C9
BDD2B69E
BD6CFB89
3CADE454
3CF158B8
3D81307B
3D679C24
3D276234
BD49E9B1
BC94EAFE
BD2B5A6F
3CE6B810
BBF39BAE
3D8BEE50
3CBA08F5
BCC6BBF1
BDA30158
3D9339DE
BD19BE0A
BD182BA0
3D79CCB5
3D229BDC
3D4E954C
3D013EE2
BAA74122
3D994BFC
BD9EE3F5
3D8D872E
BDABC613
3D07BE0D
BD829217
BC918DC2
BD27B107
BCA6476D
3DA9C09B
3D57C259
3D8C3B74
3D53FD5E
BD06F88A
3AFC0AD3
3D6AA3AD
BDAD3C39
3D57666E
BD33290D
BD3A14DA
3D26ABD4
BD81324B
BC94940C
BD84C052
3D8209C1
BD4B3DB6
BD632B73
BDAAE91A
BD626A43
3D3819A7
3D9F9C07
3D658D43
3D2BD2C2
3D53D5CD
BCE25B3A
3D9B500F
BD4D8650
3BAED022
BCA49F9D
BCEC03EF
BD939A65
BDB2F406
BC2FAC20
BC887B19
BD654BD4
BC9AC579
BD8975B5
BCAD0851
BCF65653
3C86A866
3DA3DD16
BCB27FA4
3D929D6F
BC2A33BB
3D82D8DB
3DA77B5E
3D9D2CE0
BC427E1F
3C806494
3CF5A9E6
3C73F48F
BCC75864
BDBB486A
3C982B8B
3DB45764
3CE7E08F
3CD9AD1A
BA1C2768
BD3DC2B6
3CC27DEF
BD09C1E6
BD216E2C
BD80CC0A
3D4F31F7
BD0FB260
BD300B3E
BCCD826F
BCA602C4
3A836A02
3D5D4093
3D750144
3D863D59
BD125C0E
BC084BFF
3D97EBF8
3D81A7C3
BD016B45
BD44FA13
BD607E40
39C0EEC8
BD6C17C6
3B391103
3C76B8C4
3D535F15
BD93496E
BB13C5F0
3D1519A2
3D76A00A
3D69D1C0
BD1DDBD6
3C730607
BD89D515
3CCE6243
3C530ABF
3C236B55
3D9FEA32
3CDDDB7D
3D09F542
3D8DA7AB
BD82690C
3D9AC037
39AC743D
3CD24C48
BD7A2C6F
3D21D072
3C82EEA8
3C9ADE78
3D7DBFA4
BD039277
BD73FF61
BCDE0F8B
BD5C4352
BD9C676C
3D6ACDB9
3D2A7C8E
3D8BE5D0
BD5A4EFC
BC521A95
BD8D21C5
BCD076E6
BCFB054F
3D2B2CBC
BD815E37
3D0204ED
BD0FB242
BD9C612E
BC5DE869
3D1D714D
BD312A7A
39C596A3
BD188C51
3CC61548
3D661F1E
3D8D0100
BD765F02
3DA71F77
BD293EF3
BD55F103
3D9F48AF
3D25FC0B
BCF02FC9
3D829657
3B86D735
3C9CD0A6
BD9E7F7F
BD1DA324
3D3E684E
3D295F52
3D9A86DB
BD64342D
3CB22B46
BBE22336
BDBBA9D5
BBA088A1
3C9968C2
3D5F53B0
3D942536
BD04CD5C
BD9976FA
3DA200D1
3D41883E
3D773B2B
BB933795
3D68F06C
BCB57ABC
3D98192C
3D9A0875
3D8A9D4E
3D8442CD
3D842B63
3CEA97F4
3D0D32DC
BC0CFBC7
3D94A29E
BD522597
3C83490B
BCD02EFD
3CC622A9
3D43B08C
3C1A6943
BC021599
BD8FBCC7
3B424BBF
3DB8D46E
BC998456
3DA19EA1
3D658A86
BC9E1B0E
BD531B08
BD25D6EF
BCB4541B
3D67DDA5
BCE97D47
3DC2B69E
3CF1CBDA
BC915807
3CA05677
3D1FEB8E
3D748B9B
3DBA90C4
3D633F8D
3D2EF5AF
B956395D
3DC65DF1
3D7BE98B
BD33D6BA
BBF84104
BD69D871
3D4DB971
3BD31DF5
3B0F8BA4
3D6F16BF
BDC25143
3D46C066
BAC78E4A
3D764371
BC179E0C
BD9F45FC
3D45EE06
BD3B9171
BDA672B4
3D91D9F1
BC7D7C6D
BCC4F5DE
BD3F72CF
3D55C475
BDAFD6F9
3ACE4E57
3C0AB8A0
3D534B84
BA35756D
3D5EE393
3D6DAA6D
BC699E95
3D4CC192
3D2904EF
3D008E00
BD698BE8
BD9A6DF6
3D424252
3BEAB04D
3B52BB79
3D1DD172
3A6670B8
3D2407DD
BDAE6C20
3DB85755
3DEE2F5E
3CBDDEE9
3D94E657
3D466E0E
BD1A8DBB
BB64DA60
BD765A0A
3D4DE271
3D93DCE4
BD12BFF6
3C4BA611
3C67EA75
BCA397EA
BDF04892
BB684E5E
BC99BA61
BD08633E
BBD7AFAA
3CFBAE9D
BD5AE752
BB34491D
BDA10A82
BC6A8DB3
3DE6AF45
BC338EA3
3C0A72AA
BD141A77
3D0F4220
3DEF9324
BD05804A
3D4088FC
BD368609
BC416880
3CD73C6D
BD927A32
BA3526E9
3DEAE89F
BD7971A6
3D0FB9EA
BC6F0F62
3C36F2DB
3DC2C3B3
3895E22A
BDAC2F40
BCC1A7CB
3D99F448
BDDEDCC9
3CDA0D62
BE08D81A
3C18A2B9
3C905528
3C36C437
3C5CD0C6
BD55ED04
BCA82BA8
BD8BD838
3D37D3C9
3CA482D1
BD995125
BDB5955E
BDA48C3C
3D18E3CC
BC114F73
3A2B7D47
3D8ADB02
BC86C623
3B631D71
BD649FC5
BCDE856C
3D398A45
3D7859C1
3D860163
BD1940C9
3D833B60
BD7EF47D
3BA34C76
3D6AC7DA
BD16425F
BD329B7E
3DA060FC
3DA8BE5C
398A9F2B
BC877423
BD8CD00D
3DAEFB3B
BD568AC4
3D4BF391
3D1EE3A6
BD95903E
BD9FBD04
3DA19DF9
BD67D41A
BCD0CCCC
BDC5CA03
BC9F516F
BD9D605B
3CE995D1
BC85732C
BD8C1904
3D6EE9F0
BC0CA306
BD35B9E3
BD710960
3D907D9D
3D17DE33
3D603A4A
3BB4DDEE
3D52D3C2
3DABEDC1
BD823D0D
3CC9460F
BD890F68
BCA6CD59
BD4CCD50
3D5819DD
3D7F8EF1
BD1CD952
3B3E9527
3D13C0FD
BDAE6F37
BD7BC6D6
BD27D31B
BCEBF7BB
BD3D67B2
BD13CC50
3D9DFAA6
BD3EC73B
BC645016
3D49F9C9
3C0AF318
BD87A7BA
BCB2479B
3D6DA7D6
3D84B2E9
BD96F625
3D9B62BD
BCDDD3A0
3CD16467
3D23DCE7
BD3F8FC3
3D972A4C
3B3610F4
3D4ACBEC
BD8B7E01
3B56ED37
3D798227
BD360E1F
BD8F7A74
BCACF4CB
3DCC396E
3D083AD2
3D2A04DC
BD9CA5E0
3D30B9DC
3D04C2A5
BD9AB5A1
3D4EC1AF
BBF16370
3B883C7A
3AB41318
3C6DC779
BD60C9D2
3D1540FD
3C27284D
BD490FEC
BD6B3D4E
BD5BB5FE
BD8DEA9C
BD8BF20A
3D6476C2
BB3EEA36
3D7E9468
3DB2B496
BD7F6A5E
BD80E8CA
3CE4A8CC
BD26B036
3D9621CD
3C8CCAA4
3D6BC3CE
3C6D62E5
3D0F53C0
3D0CC502
3D781070
3D797956
BCF996D0
3D99CDB7
3C6A9413
BC17254B
BD37AA8C
3BE27CF8
3DED7872
3DCBCC9A
BD7704E7
3D62FAC1
BD4338F8
3DB90EB2
3D326B0F
BDBDD624
3DB20D18
3C0BB8FC
BC3B69CE
BCD809F2
3D511597
BD09FB7C
BDC7CFBD
BCBCB02F
3D410731
3D383A9C
3DF6AADF
3D559B05
BC2BAAE9
3DCAEF76
BCF37553
3CCA0F43
3CA3607D
3D5DA9AC
3D7A2CDA
3CAA0FFF
BB14ED8D
3D0928DE
3C378756
3D6FF9D3
BD48A299
BC23C6AF
BD3F5DC4
BBB1D3A2
B91015B7
3DBC2C84
BAACC774
BD39B8C6
BDEB71EE
3D0AA6DA
3D61E6C8
BD22306C
3C2EF622
3DAEB9DB
3CE01905
3C44E99F
3DA22A83
3C0C59A0
BA8F968B
BD986E9F
BCAC74B8
3C95CF8B
3CC26749
3D88AF49
BD568593
3D818549
3DD85C02
3D28AB5D
BC71459D
BD7236BC
3CBF714F
BDA799AE
BC74FB5F
3DC69FA2
399508BB
3C5B9B9D
BD9D83A3
3D74916F
BD63C265
BD131B2B
3D8876F1
BD1EA06A
BD6AFCE9
3D81D396
3D021EFF
3DD87572
BDAA7F4A
BD00BAEE
BD65C6DF
3D80CB2F
BC627DAE
3D04A216
BCA9F6A4
3DC3AFBC
3C1CEEA3
BD8C0E6C
3BADEE25
BD67A878
3B1E8897
3C8BEA44
BCDA416F
3D831E9E
BDCF1415
3DE0C128
BD95D858
3DBE3A26
3CB0B854
BD9E9F23
3D347C0E
3CD081C3
3D9D6F93
BC59D7ED
BD000D36
BCF17721
3BEB5A01
3D14AF4A
BC954140
3CE0E838
3D775F48
BDBF0C61
BC5F8A29
3D3AA0AB
3D9C510D
BDA6DBDF
3C5B1D52
BC8895DB
3D3F6028
3DF1757F
3CC83625
BCBCC593
BCAE4817
3D1DEBBB
BD9EE897
BD9D17B9
3D85277E
BBBB2585
3B2170D3
3D13A6D1
3DA0214C
3C62E862
BD852B68
3BCF322D
3D045E77
BD7F39FF
3C24504C
3DB7D493
BD1783BD
3D6B2161
3C8BA1EA
3D2C8908
BDA99571
BCFEE1E3
3D940760
3D867B56
3D8C5D1F
BC08127E
BC1D65C1
3D803607
BD04FA99
3D7F492E
BD25C673
BD8792F7
BD354C1D
BBEC7DC2
BC8F3629
BB887295
3C21D9E5
BD944726
3D86FE55
3C419F7D
BDBCDE80
BD909064
BD8FD474
BD45412D
BD3C238A
BD0ED3FB
BD62B9E9
3D0E197B
3CEEE6BE
BCE20F54
BD6F89C3
3D8533A5
BD0F4085
3CE8D09F
3DAED566
3D591C31
3D4A8B1E
BC8C107F
3E11EA38
BDA2F83D
BCB726EE
3CA7BEF6
BC816169
3CA4B3BF
BC901922
BC23761C
3D92A0FF
3C76F017
3D3DAAFE
3D9FA884
3D338A7E
3D4F5A79
BBA36992
3C0479B7
3C3EBA9B
3DA45AB2
BD3E886C
BDB2E837
BCA266BD
3CA4F7D7
3D07ECF7
BD6DF117
3D6F1F0A
3DABA80E
3B83C069
BC66A0C9
3D9AFA03
BC0CB69D
BCC62B7E
BBCBECBE
BD8E2825
3D775714
BD01D1D7
BD40C357
BCCD6C8A
BBF56CEA
3D8FC50F
3D00D728
3D1E38A8
BD329417
3D4A89D7
BD8E903A
3D30D017
3DAE12EC
3D226858
3C688793
3D446FB4
BC76113F
BD2926A0
BD5F09DE
3D608B1B
BB53435E
3CD3E45E
BD6DEF9F
BD70819B
3B624382
BD5CCCED
3D0F5467
BC7B921D
BD87BD3E
BD3F2A72
BD3396D3
BD1A72F8
3D96BA26
3A99C665
BC3F4AF9
BD2955B2
3C5F10C7
BCDF4342
BDB8478B
3D12F957
BD2A59D9
3D00A2A5
3D7BBEBD
3D3CEE30
BD00C694
BD1DEAEA
BD8ACDD6
BD2F9819
BCB70784
BD6312CF
3CB835C7
3CF7F3FD
3D43FF9C
3C369CB5
BD29BDB1
BD3AFD8A
3D9AE9EC
3D65B1EE
BC8F7457
BD68EEC7
3CE27C92
3CBE7642
BD824604
3D93418A
BD6E55E9
3CD92F71
BCB94876
3D0FDA5E
BBB591B2
3D90BB09
BD984043
3D1EC718
BD301A04
BCC3216D
3D1205AC
3D8AC812
3D85AAE7
BD8062EA
3D3664A1
3D649627
BCA34EBA
3D0E4DD1
3CCA3538
BC744C38
3D1B2451
3D612F88
BD6AB129
3CEC6A16
BD62F1B7
3C225FE7
BCF7BA56
3D7544CB
BD6E370D
BD99E138
3D19B571
3D0C2F08
BBBC6A3F
BC25C9D4
3D2D516D
BDAB2CAE
3D87CFDD
3D881559
3C97535E
3CA8ACF8
3C8E0ADB
BD38C2DD
BDA094E6
BCD69C8F
BCE57EBA
3CDF7FFD
BC7219D9
3D90DC5E
BB7C8BAC
BCAD607B
BC071FAF
3DD849F1
3D125F8E
3DA7DEA9
3D0CBBA3
BD21838B
BD283932
3D77A482
3CBEEA00
3B2B7915
BD137CCA
BD4E1DC8
3DA7BCD3
BDA085CF
3C9E9577
3C9B3DF4
BD8B1D37
3DDEC99B
BDA10547
3C84D2E3
3CCCBA13
BD18136D
BD4FB258
BD3438C7
3DEC212F
BDA1AA59
3CF474D2
3DB5710F
BCB63038
3D4C8B66
BC316B7D
3D83EF7B
BBAEE129
3CF23989
BCE4078C
3B11C8C0
3D9CD544
3D0F54CF
3DB45EDA
BD80E3FD
BDBA651C
3D0F1460
BD900F7B
3DFC01EB
3CB3DE39
3D6B5CEB
3B390DA8
BD5EE93A
BC8D3DA6
3D2599AD
3D92E1C0
3D535B21
3D7C25CE
BBEA96A2
3D8357C0
BD3E6E9B
3DA6E6BE
BD866BEE
BD286041
3DA300F5
3BC9C688
BDAD06E0
BD2E7899
BD94173B
3D464054
3BB27431
BD0B937A
3CBBAF28
BD95FB2E
3D3918FB
BDA64FF9
BD52EE8A
BCDC9F6E
BDA07F95
BCF0F220
BD9D77C7
3D8D875D
BD90E27F
BD84A4B7
3D55DE56
3DAE48C4
BD3F15AF
3D8CA31D
BD8D361C
3D91B8BA
BD378B5A
3CFDCDFC
BD09B97D
BD98ACD6
BD67010B
BCE49668
3D7B3D2D
BCE7F4A1
3D572CED
3CCFDD3D
BAA7259E
BCC22412
BCF5B640
BD82D5DF
BBCA9133
3A8B5EC3
BC0BA0E8
3CC31721
3D5D2F5B
3D8E8039
3D979892
BD2C2793
BD93648E
BD721FBD
BD74F9E5
BD1138F0
BDA2792C
BB4FFDDA
3D7E8A82
BD586F30
3D434E6C
3CD2DD7D
3C405B90
3CE3DE9C
BC187FD4
BD0C0DDB
3D610A67
BD8E59E9
BBD69335
BCA657EE
BD0E6378
BAB300F4
BC418302
BC8F0FD3
BA928528
3D60C63E
BB793810
3C9FAB26
BC3A773F
BC96FA38
3D418AF8
3D5B2DF9
3CAE35E9
BD4E3786
3D8CFDF9
3D3F5F08
3D9B300B
3D875D0E
BD30CC03
BCD151BC
3DA6F062
BC8B9B8A
BD5A2ECD
BD6B7918
3D8CFF23
3D377F8B
3D1B3E22
BD14CAB0
3D8C2475
3CC916C5
BD148952
3D8F3828
3DA4755B
BC1856F9
BCA06E65
BD88445D
BD63E9E2
3D9D9514
3D9F9F69
3D95EEFE
BC377EE8
3B91928F
BD31B6E2
BBCB3964
3DB9F657
3CEB1B2C
3D99940E
3C6AC9B8
BCE1D4AC
3C49E755
BC299E95
3CA19F32
3C807404
BDA32D6C
BD2B6D77
BD9081B0
3D9C77A1
3CFC92D8
BA4EF5C7
BCF7EBBF
BC9ACE5D
3CF4F26B
BD773A94
3D78EB26
BDAD8793
BCD2601F
3C731891
BDB60D0A
3D2AF04C
3D9688E3
3D08044B
BD9C42A4
3BD2CE44
3BB4D93B
3D65BE40
3DAF8203
BD238583
BC26C5D2
3CA93A21
3D41D2A9
3D16B764
BD59C7DD
BD8193E8
BCABE328
BBDA5D6F
BD9A7A46
BDA1C83A
3D87F7F4
BC7B647A
3D86BAB1
BCB19BC4
3D67031F
3B56C64B
BBE38850
3C435677
3D516C44
3CCD81B9
3BF0DC77
3D8148D1
BCD9780C
BD90179C
3D1F7F62
BD893101
BCC70684
3D86365F
BD912382
BD889BD4
BD7617E2
BCFCAB77
BD759624
BB58927E
BBE75C1A
BD7553B7
BC19EF55
3D4E22F9
BD9486EE
BD40AE79
BC8C4FBF
3D2D3F43
BDBB64E0
BD85A38E
BD999042
BC2833B1
BC2F4C5E
3D0CA852
3CF7717C
BD74576B
BD1755A7
3D802BBA
3D8D5F47
BDAD9815
3D2221B6
BD28E52C
3D1DAFAE
BDC947A2
BD5A4B8B
BC1A1CCC
BD660CA7
BCD4D8E5
3D5D0FCB
BCF4D346
3D535F73
3DAA793E
BD4661CF
BD59D853
BD79FAD8
BD14C009
3CB040CB
3DAE86EC
BD395D41
BD41923F
BD65CEC4
3D4A4784
3D19005C
BD4FCC13
BBFFDC6F
BD18B3C6
3CF8B9D5
BD85C75D
BD8C1250
3B941F5C
3C9DA471
BD9ED7A1
BC33B809
BCE51878
BD92D9F5
3D88483D
BC7EC888
BCB052FF
3D3AE175
BD6F93DF
3D449D4E
3BB83109
3D41F596
BC9C7A54
3D095FFE
BD1E5A79
BD183D43
3D8AD4B8
3D07FF0D
3D87DEE1
3DA56F70
3DFAC252
3C38598E
3DB1E365
BD74F266
BBED562F
BE21D375
3CE77A63
3DEEDE03
BD6BFED1
BD91A937
3D1BE876
3AE28C7D
3D3A96BD
BC40AAB5
BD0175AC
BCC72645
3DB82439
3D3F3537
3D688B87
3D8BA63B
BDC1A30E
BC1F0346
3D1EA6C4
BC86229F
3E05E233
3CA0426B
BD68BBE4
3D948C08
BCB3408F
BE1FA62C
3DDB8940
3D2752F3
3DDB8A4E
BB8C633B
BC8DC260
3D995282
BE03F92A
3D545831
BD697689
3D9CA48C
3D19E115
BD7D0F2F
BCBBE076
3D81BC64
3D926470
BD84203C
BDC85BCE
BD902FA7
3DDA05CD
3DD2E59C
BD5C9232
3DBB7A55
BDB1C37E
BD97820E
3DC0627D
BE155E17
3D5451EA
BE078CE8
BCB89DB1
BC44E0DB
BCD36C1E
3CF9B48C
BD95683C
BCE1EC59
B9F62C98
3C8D798B
BCC8FFD4
BD03BA6A
BD058A48
BDAF7DA8
3CC22021
3CC089A8
3C833346
BDA930CB
BC822EDF
3BC36D12
3D8432D2
3D29AD86
3D2BBA86
BCDE74FB
BD2022CB
3DAF712B
BCD9820D
BD24F890
BCA7A530
3D9367FF
BCF86FC3
3DBD9123
BAE52838
BC1E0010
BD9396DB
3DB937A7
3CF33E1B
BD0A43B6
3C109894
BB24AEA1
3D64858B
BC854DC8
3DB4522B
3D57B5A1
BDD6A492
3C715A4B
3CD8A14C
3D0E46A5
3D4F3933
BD9BCF50
BC884519
BD1F17B3
BCEB5685
BD8A314D
BC3434B0
BC25CB61
3C09F23C
BD159982
3D0850CC
BD154E2E
3D89F9BA
BD95681D
3D1D66DE
BD7080EC
3CB208F7
BD86D9D2
3E1B2FFC
3D0E97DB
BDAF296A
BD5ECF7C
3CDE5EDB
3D32AFB0
BC8C5F49
3C96440A
3D9448B9
3D3A4F29
BDA25737
3CF92840
3D013702
3B1733B9
3D3E839C
3D9CB35B
BD618E6D
3D55116D
BDAAA466
3CED0537
BD4652E0
BD10D4C7
BC3FA359
3D61FDB1
BBD7BF2F
3D0F5223
BD2C77AB
BD3886AD
3C5CB2A9
BD750604
BD9124F6
BD8DB9D9
BD1886D5
BC9DF5F5
BD8FBD8F
3D31C54A
3DA2269F
BD8A44AA
3D9342B3
BD547781
BCD987A1
3D2F5D33
3D8A8E84
BD990652
3B709DE2
BCD64938
BDA715B9
3D69886F
BD6BB55B
BBA9EE51
BA81C136
BD9768B3
BD1698CB
BD67C69E
3D869C0D
3DA1BD2B
BCD00079
3D22BA52
3CF3244F
3C5F7BB1
BD41A3B7
BB1AED2C
BCD4369E
BD8DFEE4
BD1060AE
3D0A2187
3C08932C
BC4896E8
3D70F3D9
3DBF658A
BBA464A4
BD984A10
3D145928
BDAA3343
BD18BA4E
3C2E8234
BD32732F
3D4341E7
3D7306EB
BC6960A2
BD82F964
BD701E4E
3CBC055A
BC8A2BFE
3DC29512
BD2D5D6B
BD273A03
BD6DD937
BDA30F35
BD066743
3C970F20
3CC44D52
BD42DC94
3D2D9E49
3D0ADE22
3C8AB5B1
3C8C34FD
3DAC6F92
BD4BC952
BD68A86D
3DACEB2F
3D9A39F5
BD908624
BD72353F
3D8B3FAF
3D991F4B
3D8AE42A
BD24D621
BD87BD0A
BD2F1C35
3BF4A2AA
BD497C96
BD4FB58A
3BF8910B
3CF3FD63
3DCEC2A6
BC227723
BDB8E966
3CB0B037
3D3B52BC
BD3D4375
BC7E1F1F
BBEED5E1
3B7090CC
3DB3FF90
3D5B58CF
3DA2A062
BCF51CF3
3E12B7E5
3DB32D8F
3D1B9C63
3D81084B
BD357314
BD217DD4
BD66EE81
BD003252
BD4E82CA
BDA4E87B
3C9284C2
BD9AC120
3D551BD6
3D30E985
BD649E0F
3CE5D3EA
3C71A925
BB3EC09B
BD71974F
3D79E7FB
3DA4DA00
3DBAD393
3CA96F7B
3D9D850E
BCBA712B
BD2F6315
3D9938A2
BD9711EE
3D6DF172
BD8EE664
BD4C1F28
3DACF4E3
BD141320
BD08112C
BD3290DF
3D25EC36
3D1E78A7
3D4E5BF6
BD95ADF5
3CAA8A68
BB7BF503
3D14A1D0
3B575795
BD41D7A9
BD0A7A67
3B559BFE
3D25C73D
BC2C0EC7
BD38F1EF
BD50FC72
3D5C5010
3E064CB1
3D4789E5
3D5958FF
BCB54FAE
BD1EB418
3D59137A
BD67FA0A
3D74D031
3C81D542
3D623821
3C8F2BBD
BC7A2906
BD7BA9ED
3DA7D9DE
BD5FF8FC
BD8424A9
BC17EF60
BD1CD9AB
BCDCAF7E
3D007BE9
BCC491AA
3D7B28F3
BCC31FF0
3D5A4594
3CDAA090
BC912EB7
3CF541F6
BD883823
3CBA46CE
BCBDB949
BD06617E
BCAF3324
BD038E8B
3D1BD7D0
BCA08FF3
BDB8C59F
BB4418C9
3D3F405F
3D67BD59
BD9A125F
BD7056E5
3D0B2CDA
3D9F95FA
3DC647E7
3D8A0708
BD89202B
BD74832F
BD219A09
3BB689AA
3D1A781C
3CEBA5DB
3D69D071
BD453970
3CC531F3
3C5AB9D5
3D3ACB78
3DC28BC5
3C85D47B
3CC00C80
BD83AC76
BD80C558
BD217461
3DC86694
BD58CBC4
BD896211
3D5418D1
BA5B1CF2
3D071A05
BCB69599
3A21150E
3DD0714B
BC44A830
BCE39DCA
BD6A1293
BDC17B36
BCD74678
BDA267BF
3D4CD421
BD8496BC
BDB1C3DA
3B500DF5
3D891E7B
3D56F903
3D0B94B6
3D6AB2FA
3D2350A5
BB35C06C
3D8E891D
BC9A1FC7
BC1293A1
3DA1DC6C
BD659B6B
3D924DC4
BB142917
BD1FD276
BD388133
3D2E954C
BCE8B363
BD4D2F93
3D89F409
3DB6D5D2
BD152C92
BD946079
BCBFC68A
BD65D923
BD6C41C2
3D45648E
3CE554CE
BBC92172
BD49C5AC
3D98492F
3D7FB1FF
BCA03F70
BCF8F76D
BD5159FD
BC4D149B
3D13DDAB
3D7651C1
3D81E2B2
BCD2EF4B
3D05F6CA
3B56672A
BD8B4B71
BC824E89
3B509483
3CA9C40F
BD8664BD
BD7FD726
BDA0F6FF
BCBD17FE
BDB4BC99
BD9E4171
BCDC2194
3D50E141
BD432AF0
BD9DABF8
BD9DA32A
3D090F89
3CFAD5DF
3D118083
BC8D3552
3D6A8DF6
BD86DCF5
BCDD1E44
BC34CD5C
3D20DDF1
3D1A7DB8
3D305F49
3C821ACD
3DD89A2D
BD381151
3CA06246
3D41BDA5
3D788E0E
3D8983D0
BDB2A0CF
3D5CD808
3C812376
3DC035D7
BD0F3FFC
BD323AF3
3D8EADA7
3E125C62
3DC0480B
3DF22894
BB96C9C6
3D9501ED
BCAFD144
3D9736FC
3CFA5399
3D9F6FDA
3CD9EB03
3BA2F106
3D1863BC
BD1125ED
3D8B2F41
BD800DBD
3DE6C272
BC69552E
3CC068DC
3D3B186D
BCCB7B03
3C749CF5
BD5B9EE5
3C2B1BCD
BDCE67CF
3D23E66C
3CFDDA6C
BD85A56A
BD944341
3DDEE7C6
3CCB29C5
BCC83F95
BC9FE2D4
BCF5E900
3DAE044E
3DACA9D9
3D3108E7
3D6E6912
3D83E0FA
BDE0DB81
3CDED192
BD373D9C
3D06B485
BCC5F74B
3D65074B
3D97D984
BD84A971
BCFCA562
BCF8DE69
3CF9634E
3C514EE8
BDB41FA3
3C4E2074
BD9B0760
BDA23727
BCD2AD31
BD095E66
3CECA1DA
3D81C482
3CA5E6CA
3D3FC177
BD6B203A
3BF37EBD
BD9430ED
3D7576E2
3D4BE3C6
BD1E9722
3DA663DA
BCDA7E9C
BD046EB7
3D0A16A7
BDA8FF9B
3C2A16AA
3CFFA948
BB29986A
3DC11BE7
BD156718
3CD511F5
3C9FE7A7
BD642328
BCA2AB96
BA3CC518
3D90D2F8
3B923C99
BD966284
BD86D32A
3B06A952
3C87DFF3
BC5CDFD5
3D917192
3CF3019A
BD944A76
3C93B839
3D148972
BC30BDAD
BC8EF876
3D57C1F3
BDBE2986
3D4E51FD
BCE9F2E8
BDBF89FC
BD023AEB
3CFBAEC2
BD4593C6
3D4F23DA
3B183EA6
BD5C69C0
BD59F5E8
3D696BC4
3CAD21F7
3D7DC2B6
3D83AE58
3D0B6F85
BD805C55
BC5BBD8B
3D0ADCD0
BD769385
BD844F92
3D66527A
3D110C85
BD8C607B
3CEC8A6D
BD91F51F
3C6DB3AD
3CE3A5C2
3AB6A010
BC3FB83C
3D3CAC63
3D8C8402
3D998D22
3D8B2D6D
BD57D300
BC4C54F8
3D444A55
3DA96B13
BC9D2BA5
3CCAEB05
3DA10405
3DA4095B
3D59D23E
BCA69C47
3D592E82
3DA07C76
3D2F0F5A
BC17D59F
3D686166
3D730AB4
BD5B16C7
3D8AA1F8
BD0AB4CA
3D8436E7
3C517182
3D0ABA84
BCB2152B
3D0B5F11
BD815261
3C637D7E
BD4DC98C
3D9E5143
BDA38C0E
BCF21F9D
BD1A09A4
BC8914FD
BD71A834
BD2BFE30
BCE0D0D6
BBA0B933
BC93A38B
BD64D8E3
3DA06A1A
BD7664AB
3D64571D
3D92B0A3
BBBAA949
BCC69D2D
3D865E46
3D97A5BD
BC9A2D63
3DF2326A
BCD68431
3DAC0762
3CDAB390
3C81F457
BDADDC62
3D99266D
3D073E1D
BDDFFF6F
BBB04C79
BD45CA3C
3CB754F1
BD5221A3
BD2C4850
3D9EBE2E
3DF208FC
BC1C8511
3DACCC22
3D719B28
3D1D4CC7
BDA16DF0
3D483A54
BC3EC4CC
3CCF1628
3DA4C58F
3CFF37B3
BD417A0B
3DCDEC67
BDA2A855
BC6C1CA9
3DEF0036
3D33AE30
3D5C4E3A
3C1A446F
BD62E560
3BA710E6
BDAA629E
BC0486B8
3C0056A8
3D019795
3D0546E1
BD176542
3B2D131E
3CCD5AD2
BC486B29
3DC87B8F
BC488CAC
BD159746
3DA1AFBA
BCD7452C
BD9DA363
3DDA7F31
BAE74219
BD566425
3CA8D816
3B8C3BCE
BC40BAE6
BDD303EF
3DA9389D
BD9B8844
3B0B7AF3
3DB80880
3D5BF5E0
3DA124C3
BD5612EF
3D88AB73
3D814E30
3D976D67
BDB841DC
BC8AA967
3DE13BA7
3D80AFD9
BDA8F8FB
3D8FE837
BDA175FA
3D232FB5
BCE8A698
3D667758
BCAADB7B
3DF9F426
3DC248A9
3DC2EE75
BD9A578F
3D0A80D2
3D306B0F
3DAFA077
3CA438CF
3D7D518A
BCFFB5CE
3BB57D7B
3D5307BA
3D9F14E1
3D4F5C01
BD3FE33A
3C9B27C9
BD67029B
BCC58C9C
BC4BC876
3D56DC0A
3D5A6CDE
3C19D37B
BD2FBE8A
3D44ECA1
3D4EAC71
3C8CCB25
BD66516B
BB4A8926
3DA64A4C
3D3C408E
BCC7254E
BD326FB4
3D8CD1C2
3D1268B0
3DA5130D
3D491CD4
3C47B7DA
BCB82FA7
3CC7FD95
3D7C5543
BD9ECAA6
BC7141D7
3D173A4C
3D387B44
3CF2F94C
BDA5F599
BAFFCD80
3D104FE4
3B9ED9B5
BD851059
3C2BFC9E
3CDE9A95
BD8A06F3
BC661CCA
3D84EEDE
3D217A51
BC1DA537
BD14BA72
BD9A1BE8
3B7A1B0F
BBCD79DB
3D2250AA
3D7A88C0
3D655EA4
3D7068F1
BD309FE6
3D48A88E
BA83C9A4
BCEE444C
BBC12006
BD56B246
BD624DEE
BD9B1865
BD923F96
3CD220CF
3D8C6899
BD1082ED
3D1C364C
BD8011EE
3D90A18E
BDB189C6
BCD05E5D
BCA2E969
BBC8FA2F
3DBF1A7E
BD936CD8
3DAC8C50
BC9D622B
BB6337F3
3D1D6289
BC757E47
BCE48A74
BDA126D9
3D93487F
3D134837
3CD073A6
3DB5167C
3DBA7347
BC1CE0AC
BD3D30C3
3D8E7B69
3CC272BC
BC9CD7F2
3D86B83E
3C26C74A
3D2A1997
3CF9AFBF
3D91299F
3D2C947B
3D955038
3D47179F
3D6E7AF5
3D48AC6C
3CA2850B
3D125DD1
BCD22F72
BD9B0A9F
BD4F3ADE
3B713A95
3D7F7CC3
3C914E06
3DB28D36
3CACE7CA
3C19BD15
BD752B00
BCE7DA14
3D907E67
BD077A0D
3A841E32
3CFFD461
BD9BC183
3D7BE3DF
3D9F2084
B9205926
BD796E89
BADA422B
BD0CBAEC
3CB3E4B4
3D5F0C1A
BD96BA4F
3D93A6E4
3C8F8E9E
3D5C39B2
BD714461
3D762947
BCE4B206
BD5B68AF
3BC7F0DA
BC308A82
BCB4EE34
3D1CD9F6
3C8227D8
BD5C4C3F
BCA6E7C1
BDAB71A5
BC855ACE
BCD81E2F
BC8B1329
BD9DB3F1
BCD1E7FF
3D1D2D42
3CDB73C9
3CF50DEF
BD8F5F70
BD13E001
BDBA7900
3D59F445
BD525875
BBFEC807
3CCA0288
BD1FB3CA
3D3B6BB9
BD86BD7B
BC63E75B
3D857BCD
3CF0F008
BBF19FD5
3CE849CB
3D6E7010
3DAABC32
3CDF7EE6
BD4A0B92
BDD98999
3C36043E
3D98564A
BD1FB10B
3D33F08D
BD55850D
3D1E4CE5
BD907F55
3D2B7DE0
BCCE08B2
BC8609CA
BDA08153
3D2C9765
3D85A9CE
BD2BAA15
BDCA4196
BD8C3F22
BC56F67C
3D8B01F3
3D3E7EE9
3C88C5C2
BCA9FC83
BC66C221
BD645877
BD402562
3DB73BD4
BD8A8427
3D086C45
3D28C1A8
BC91D397
3C904857
BDBD57CD
3DC6A012
BC0A9CE7
3D8EC98E
3CDE1524
3D03197D
3C03D064
BD01F1EB
3DA2FC47
3D1B91E4
BD0F8683
BDAFC665
BCC1BB61
3D60A60B
BD88ABDD
3D8D6F9D
BC27DD14
BD620A46
3DA35B41
3B91B7CE
3DB59EBE
BD649810
3D54D62E
3D5E0912
BD913107
3C787E21
386BEDFA
BD193ED0
BD85336E
BDBD9383
3B66BDBA
3D02943F
BCB49E93
3B97BB33
BD957A44
BC9E6A13
3D131AA7
3D5675A0
3CB10B40
3DAB5A1B
3C37DDFD
3C423A2C
BD3EBBF0
3D87F14D
BBD50DE4
BD6D95E3
3C79EDED
BD151E0F
3D9F9D0A
3D8186CD
BD7C0473
3D801E5B
3D26799F
BD1AE3D1
3CE7B4A0
BD607200
3DB60C8E
3D666BF0
3C77EDD8
BC1C7059
3D807F9F
BCADC7A4
3BC834CD
BC99B89E
3D1A3F11
3DA14A0E
3D9F1A49
BCD95EC1
3D41FA56
BD28E61B
BC10CF30
BC9D6175
BC407B45
3D907429
BBA94B93
BD69D7C5
BD32FE8A
3D10A5DD
BCAA10F6
3C0E03A4
BD7730C1
BD97B01F
BCC8ACB2
3B1E8DCA
3D5A8E1E
3D329E33
BB7C57AA
3AAE256D
BBF7234D
3CDCF3A1
BD5D0C78
3D9E2F56
BC94CBEA
BC47880A
BD5AC835
3DA04C1C
BD29509C
BD544798
3D97C12A
3C8BDAAF
3D6F1AC8
BB4E5AEC
3D19F234
BC873BF9
BD8E59C5
3D860D57
3A9A2F16
3D89182E
BD0B598D
3C45C4FB
3C902094
BD5162EC
BD1E271A
BD0173DB
3C737746
3DAB04E0
3D748505
BCAF0531
3C246438
3CBC95C8
3CE0C191
3D94CAC5
3D878AFB
BD13DFAE
3C430E12
BD4411C8
3D0F7CC8
3C2F0A9A
BC3B975B
BD02C4B9
3B397FE9
BD124CFF
BD9639CE
3BAB3929
BC73D7DE
BC889AAE
BD83AAD9
BA85192F
BB99D2BA
3D21E109
BD2E3479
3B61C329
3D430ABC
BC6501E2
BC03A673
3CED2212
3D9AA243
BD699B57
3DC20FF4
3D3A63C4
3DDD1F8B
3D30FF24
3D87C5AB
3D2231A6
3D83FC80
3C8BC16F
BD71DCBC
BD7FA1E1
3B67CFDD
BD8D0108
3D8EC80A
BD28ABCE
3C89544D
3D7F76B3
3D43A42F
BCD2C80E
3D862B49
3DA79E00
BDA71C87
3D8BEECA
BC98C3A6
3D7288A3
BC3CEA77
3D2BD78C
BDAA5D93
3DB3F89F
3CF1BA62
3CBC817B
3C85D0FA
3D9F66D6
BD3E97E6
3B0F2623
3D3382F7
BC13634A
BD5C4ED6
3D8771C3
3CB6B6BB
BD69760B
BD6A2D48
BC866412
BD3033FA
3CA25845
3D64BEB9
BD92365F
BD45DC1D
3BE9616E
BD097064
3C8985B5
3D1D33E3
3D44ED7D
BC0ADF01
BC8FDF41
3D7994FA
BDA0E0D9
3AE97EDF
BD53C0DD
BCF89F79
3D9ED48E
3D878922
3D7B1C38
BD329C4F
3D97DF54
3C5E219E
3D6413A8
BBB928AB
3DBECE97
3D5D5F26
BD8ABC93
BD9B323E
3C955827
3D24089B
BDA852D9
BD57E179
BCDE693D
3AC4F1E2
BDAADDDE
3D1CFD3F
3D0E7F24
3CB5EA83
3D90509C
BD31C311
BCBFC01F
3BD36D3A
3CDB172D
3DA8F06F
3C820BC9
BCD9F209
3DA88161
BD884323
3D96FE5B
BD396A2C
BBAECBB0
BCE8210C
BBA0184E
3DB3F79F
3D93A63D
BD787C48
3C4DB4B4
BA15EEEA
3D1073D3
3D29BF13
BDADC78E
39832539
BD82E468
BCC788CB
3D046329
3C8BC302
3AA7FA05
BDCE3445
3D547B5D
3D72D9A4
3C5D2F7B
3CAD4CBF
3D7436E7
BB69B05D
BCE7E013
3D3705D3
BD6A9991
3D918867
BD30E87E
3CBAC218
BC94026B
3C95BF4A
3D141843
BD607DD2
3D58D839
3CA541A3
BC4FB68C
3D8EEE19
BC8F6127
BD397D98
BD584132
BD31020E
3E05E123
3C8EC66C
3CA11EC4
3C05FDD1
BCFA4D9F
3C8EF47F
BDD2EDFA
3C51F7C4
3DCD5DFF
BCD3F00C
BCDCECFB
BDA0A27F
3DDAA6C5
BD70D771
BC3DFDFD
3D3FBA8B
BC93E611
3DA26588
3DB30F63
BD8267D1
3CED5EB3
BDA76775
3C9B2C1B
BCF141A7
3D84E916
BCDC8009
3D8E1AB4
3E1B5872
3B8C870C
3DE77B14
BE00E36E
3DB7793B
BBB8660D
3CE17FA2
BCFB818B
BCE24CDC
3D924D55
BD08D3A9
3DDB2CBE
BDAA8930
3A983B20
BD832858
BD12AFC8
BE135FA5
3D03FC5C
3DDFA5D1
3CB2D428
3A85005A
3CC2383F
3D857016
3D6DB3AA
3D1825D6
3C995531
3CBFF640
BC851E17
3DD024E5
BD80B83D
B9B9BD51
BC8024D3
3DF18809
3CEC9A22
3A079560
BC71F1F5
3D94F1B7
3D2E58F4
3D80DA28
BBEE9CEC
3C4C29C4
3C1BA9DF
3D3B8C5B
BD617C1F
3D41F164
3C586FE3
3B5DFDCD
3D81611A
3C914E92
3CE0B3D5
3CFD4A08
BB6AF2A8
3C5F4408
3DBAE3EF
BD7B13D5
3DAE0C90
BC506AF2
BD03EA28
3CA51482
BB8FCD7D
3C8F562A
3CBE2E8A
BD238E37
3DBAC3F4
3CD5D32B
BB9C68C1
3D77C5FA
3D44738A
3D98C48C
BC862F24
3D45FEA7
BBA6B11A
3D884944
BD5BD3F9
BCC743A6
BD983DC0
BDA7A6D3
3D3D42D1
BD5B8A3D
3D9EE066
BD25EDF3
BD7F65C9
BC26EC48
3D87CFE1
3B0D0D44
BC7D8E16
BCC58A99
3DA835D8
BD15EEAF
BCE0286F
BD0F237C
BD94E7CD
3C6556E7
BCABBF26
BCFC8E16
BD200AB5
BB9AF539
BC894D36
BCE8D165
BD561D6E
3C7A10BD
3CCD251C
3BB1FF41
BD809493
BBDAFD11
3CCF4BB8
BD86AD3B
BD0FE6EB
3D6074B5
BD827483
BCB6CF8A
3C48517D
BCA7EE61
BD8F1F66
3C29CB8B
3D29585E
3CB00C22
BD06162F
3CF0A6E7
BD7B7E66
3D398AAB
3DE4D78C
3D4C559C
3C67C3B4
BD1578AB
3D94554B
3DA6A15D
BD1E3CA4
3D58D516
3D80C636
3E07B78B
3C9A4AA4
BC1A727D
3C68EF58
BC4DF145
BC95C473
BD82C0D5
BD79362F
3D5032B8
3C031B48
3D8044F6
3D18A63F
3D117FBD
BCAA1293
BDC227E0
BD598E82
3DD12A44
3BEB7CFC
BD24909E
BD9CAB42
BC8CFE76
3DBA8835
3CE52E73
BD2E445C
3D4B157D
3CB9EEE4
BD8354CF
3D41C41D
3DA51BE1
BCA3949A
3D5DA374
3CBCF9EC
BD7D9B49
BB760A08
BD30CBE3
3DA98D0E
3D942F08
BD12EC19
3D8ACFAF
3C959C8F
3C353C4D
BD72C344
BD0FAC50
BCBBDC09
BDB22297
BCDAD152
BD0EF668
BBCD052C
3D65BDB5
3DCC068E
BC133BDC
3DB6D9DD
3B828FBD
3CA18297
BD63C8ED
3E145272
BDB7B70E
3CC0715F
3D9CE90B
3DD3BF21
3D9A8ED2
BCEB77A8
3D9F1935
3DA8C7A1
3D9389FC
BD28181A
3C62F4ED
BD78057B
BBBC0AC8
3D72543E
BD1AB197
3D4CA763
BDB6E59E
BB5501A5
BC6F5DBC
3D7B8E7C
BD888F0C
3D9CB194
BDE2579E
3DAE0D6E
3C0CBF20
3CE4053E
BDE2CD53
3CEBA403
3C548A66
BCB2739B
BDA87B02
3C2747AD
3DA13977
3C94DC6B
3CF088F4
BDA3E571
3BEAF4D6
BDAFBA65
3DE415E3
BD730B4D
BDFB4682
B975837A
3D93DE75
BD2FAE3B
3D33E9F2
3D6F657E
3D1FE502
3D54ACC3
BBC9BC21
3D3DB7CC
BB96FEF5
BC88D1D1
BCF4D9F2
BD25559D
BD7F0074
3CED918E
3D08701E
3CE92370
3D3FB4DC
BB1336A9
BA8CD236
3CCD132E
BD1E2435
3D1BAB3C
BD754A9D
BD3DB3CD
BDAF33F5
3CEAADDE
BBA201C8
3DDDFBED
3DEB734F
3C1532CD
3D4D384A
BD830576
3D580B2C
3D8DA830
BD3947C2
BD215E5F
3DCFC79A
3DC83953
BC057CED
BD038315
3CD46D90
BD484C2F
BD36EF32
BD6DA4F9
BDAA5915
3D88886B
3DFD2CB9
BD8CE1FE
3D013A1A
3C85699C
B9B037EC
3D8224F3
BD52D4F7
3DB752C1
BD8AAE83
BD4DADFB
3DB710D7
BCF9872B
3DBCB068
BC1241EC
BBC6EE11
BD84BDE1
BD98A18D
3E07DD3E
BCE8A129
3D408BE1
3CC044B9
BDB9F95B
BD30B140
3D52A955
3C17CD11
BDB8E1C3
3D558974
3D9BFF43
BCB19BD4
B936B432
3CA5B3DF
BD61C400
3C6BFABA
3DAF3927
3CF24B92
3D5F4171
3CEEAB94
3BB5BE28
BD8A571D
3DF40C76
3D02EC5E
3CFA2134
3D174B46
BD8C92C2
BD28DF98
3DF68DBB
3D920BE2
3D05D4AB
BC55206E
3D0CC60F
3D835904
3BE7CFC8
3C25B323
3BB23547
3D1E9616
3D8CF081
BC4F9FE6
3D769416
3D0DCE85
BC4B6FC0
3D378FDF
BC7E5484
BD8CD800
BC9F9BD7
3DD0E219
3D34568C
BD4F9C70
BC047484
3C95608A
3D83F8A4
3CD591C2
3D6AE138
BD57E021
BD0A7E99
3C73D153
BD8EB357
3A9B8557
BC4FB88F
BC8A127E
BD6306EE
3D97C317
BD0AE303
BD5B0537
3D1E572B
BD6DA601
3D3B6145
BBE1D243
3C44D572
BD7C5D49
BD057C9C
3D8C8609
BD933EAB
3D858735
3D8745AA
3CDF3687
3D87F063
BD4438FA
3D131787
BDA612E2
3D95D082
BD848AE0
BCD38B98
BA8E75A4
3BEEFE65
BC2FB75D
BD88E6A2
3CCA1E67
3D142701
3BA5519E
BD6DE61A
3D9ADB31
BD4BE2FD
3BD7C1C8
BCC974BE
3D8D32E2
BD66CB66
BCE6C3DF
BAE558E0
B92FFE35
3CF9F224
3D4D24FA
3D586CDE
3DAA0B25
3D4C77C0
3D8B4CE4
BD54CE91
3D987B9D
BC38BD0B
BD6A56E9
BD50A95B
3D7A97D9
3D80E636
BD202A4F
BD7C7DB7
3D7DA3F2
3BFCDDE2
3CA1F040
3C89D597
BBBD35C1
3D850A5D
BD4B3B12
3CAAD8F2
BD40E3A5
3D1C5F5F
3CEBAB65
BB9B062B
3CF45039
3D534B64
3C4828A3
3CDF47A9
BD04C277
BDA18652
BC4F54B2
3DB12650
BD83F213
BD6DC794
3D453594
3D67A4CD
3D977056
BD96BD52
3D8261F9
3C98FCBC
38E4D75B
BD2FE64F
3CD7D9C6
3D6DEBF4
3D5588DE
3D32F535
BD9F198D
3DA0A615
BBEBA392
BD692C8A
BD3D3106
BB7ABAF2
3C934AB6
3D93E224
BAEA8EAA
BBDF7EAB
BC9744A5
3D8CE18C
BD433AE0
BD9F87C3
BD3E0AB8
3D97A0F8
BD8DD89D
3D32594E
BD903834
3CF92C5C
BCF59A2B
BD8D0296
BCD8B4B2
3AB967C0
3BCC575C
BB3FCF0D
3D1B2515
3CCFD7FF
BDA97DC7
3C9A1433
3D5B4899
BCC27D6E
3CECAF56
3C6BF399
BD0A8D2A
3CE29724
3BEB56A6
3D9FAC6B
3D11D535
3D9DB7BE
3D006B4D
3CE462AB
BD14DFE4
3D9128E1
3DF137B4
3D92E633
3CFAB7ED
3D94376D
BC1D4AEA
3CB22F4D
3BAB5DFD
3DAFEF1D
BDD8CED4
BCFC2CC1
3D470398
3C8A6FF0
BB775E71
BC9CAFC4
3DE57452
3DEAE4DB
BD33EB44
BD1C57FA
BCF60362
3D6381F8
BDB9E4B0
BD2C04C9
BD94E990
3D10E61F
3D689B52
3DBD9FC9
3CF3F6ED
BC396D54
3C3808BB
3D4CAB09
3D6D199C
3D612521
3D3740FF
BD13BE3E
BD038256
3CE6865C
BD8D4A5F
BCC64E1D
